{
  "version": "1.0",
  "truncation": {
    "direction": "Right",
    "max_length": 512,
    "strategy": "LongestFirst",
    "stride": 0
  },
  "padding": {
    "strategy": "BatchLongest",
    "direction": "Right",
    "pad_to_multiple_of": null,
    "pad_id": 1,
    "pad_type_id": 0,
    "pad_token": "<pad>"
  },
  "added_tokens": [
    {
      "id": 0,
      "content": "<s>",
      "single_word": false,
      "lstrip": false,
      "rstrip": false,
      "normalized": false,
      "special": true
    },
    {
      "id": 1,
      "content": "<pad>",
      "single_word": false,
      "lstrip": false,
      "rstrip": false,
      "normalized": false,
      "special": true
    },
    {
      "id": 2,
      "content": "</s>",
      "single_word": false,
      "lstrip": false,
      "rstrip": false,
      "normalized": false,
      "special": true
    },
    {
      "id": 3,
      "content": "<unk>",
      "single_word": false,
      "lstrip": false,
      "rstrip": false,
      "normalized": false,
      "special": true
    },
    {
      "id": 128000,
      "content": "<mask>",
      "single_word": false,
      "lstrip": true,
      "rstrip": false,
      "normalized": false,
      "special": true
    }
  ],
  "normalizer": {
    "type": "NFKC"
  },
  "pre_tokenizer": {
    "type": "Metaspace",
    "replacement": "▁",
    "prepend_scheme": "never",
    "split": true
  },
  "post_processor": {
    "type": "RobertaProcessing",
    "sep": [
      "</s>",
      2
    ],
    "cls": [
      "<s>",
      0
    ],
    "trim_offsets": true,
    "add_prefix_space": false
  },
  "decoder": {
    "type": "Metaspace",
    "replacement": "▁",
    "prepend_scheme": "always",
    "split": true
  },
  "model": {
    "type": "Unigram",
    "unk_id": 3,
    "vocab": [
      [
        "<s>",
        0.0
      ],
      [
        "<pad>",
        0.0
      ],
      [
        "</s>",
        0.0
      ],
      [
        "<unk>",
        0.0
      ],
      [
        ",",
        -2.817742347717285
      ],
      [
        ".",
        -2.9318439960479736
      ],
      [
        "▁w",
        -3.792711019515991
      ],
      [
        "▁i",
        -4.128159523010254
      ],
      [
        "▁się",
        -4.348453044891357
      ],
      [
        "▁na",
        -4.385279655456543
      ],
      [
        "▁z",
        -4.386552810668945
      ],
      [
        "▁nie",
        -4.600531101226807
      ],
      [
        "▁do",
        -4.679745197296143
      ],
      [
        "▁-",
        -4.742452144622803
      ],
      [
        "▁że",
        -4.941717147827148
      ],
      [
        "▁",
        -4.9818925857543945
      ],
      [
        "▁to",
        -5.0068864822387695
      ],
      [
        "a",
        -5.0722575187683105
      ],
      [
        "▁o",
        -5.155163288116455
      ],
      [
        "▁jest",
        -5.29521369934082
      ],
      [
        "?",
        -5.583743572235107
      ],
      [
        "▁a",
        -5.616527080535889
      ],
      [
        "▁W",
        -5.6314592361450195
      ],
      [
        "y",
        -5.647190093994141
      ],
      [
        "-",
        -5.687507152557373
      ],
      [
        "▁(",
        -5.78255558013916
      ],
      [
        "e",
        -5.788956165313721
      ],
      [
        "▁za",
        -5.849636554718018
      ],
      [
        "▁po",
        -5.854557037353516
      ],
      [
        ":",
        -5.90805721282959
      ],
      [
        "▁jak",
        -5.910776138305664
      ],
      [
        "▁od",
        -5.91709566116333
      ],
      [
        "▁przez",
        -5.958852767944336
      ],
      [
        "▁–",
        -5.964389801025391
      ],
      [
        "▁—",
        -6.04518461227417
      ],
      [
        "▁tym",
        -6.065793514251709
      ],
      [
        "m",
        -6.100050926208496
      ],
      [
        "▁co",
        -6.152878284454346
      ],
      [
        "▁tego",
        -6.270664215087891
      ],
      [
        "▁ale",
        -6.2895097732543945
      ],
      [
        "▁Nie",
        -6.312023162841797
      ],
      [
        "em",
        -6.326874256134033
      ],
      [
        "!",
        -6.328143119812012
      ],
      [
        "▁tak",
        -6.33261775970459
      ],
      [
        ")",
        -6.341155052185059
      ],
      [
        "o",
        -6.395885944366455
      ],
      [
        "i",
        -6.396442890167236
      ],
      [
        "▁dla",
        -6.427602767944336
      ],
      [
        "ą",
        -6.468038082122803
      ],
      [
        "▁są",
        -6.486438274383545
      ],
      [
        "▁ma",
        -6.535606384277344
      ],
      [
        "▁r",
        -6.5389885902404785
      ],
      [
        "u",
        -6.544258117675781
      ],
      [
        "▁czy",
        -6.546876907348633
      ],
      [
        "▁które",
        -6.5490031242370605
      ],
      [
        "▁już",
        -6.556917190551758
      ],
      [
        "▁tylko",
        -6.575976848602295
      ],
      [
        "▁roku",
        -6.585577964782715
      ],
      [
        "▁jego",
        -6.616223335266113
      ],
      [
        "▁ze",
        -6.620815753936768
      ],
      [
        "▁\"",
        -6.63339900970459
      ],
      [
        "ch",
        -6.635704040527344
      ],
      [
        "▁jej",
        -6.65395975112915
      ],
      [
        "▁oraz",
        -6.656496047973633
      ],
      [
        "...",
        -6.669121265411377
      ],
      [
        "▁tej",
        -6.701962471008301
      ],
      [
        "▁„",
        -6.706459045410156
      ],
      [
        "▁A",
        -6.71182107925415
      ],
      [
        "▁było",
        -6.716287612915039
      ],
      [
        "▁go",
        -6.744490146636963
      ],
      [
        "▁bardzo",
        -6.755947589874268
      ],
      [
        "▁był",
        -6.789429187774658
      ],
      [
        "▁może",
        -6.814283847808838
      ],
      [
        "▁przy",
        -6.825483798980713
      ],
      [
        "▁pod",
        -6.833831787109375
      ],
      [
        "▁który",
        -6.834580421447754
      ],
      [
        "\"",
        -6.845240592956543
      ],
      [
        "▁będzie",
        -6.845723628997803
      ],
      [
        "▁ich",
        -6.873768329620361
      ],
      [
        "▁I",
        -6.878290176391602
      ],
      [
        "ego",
        -6.878879070281982
      ],
      [
        "▁To",
        -6.880781173706055
      ],
      [
        ";",
        -6.88785457611084
      ],
      [
        "▁ten",
        -6.921758651733398
      ],
      [
        "▁mi",
        -6.930543899536133
      ],
      [
        "▁być",
        -6.935968399047852
      ],
      [
        "▁mnie",
        -6.956235885620117
      ],
      [
        "▁jeszcze",
        -6.9578070640563965
      ],
      [
        "▁bo",
        -6.959582805633545
      ],
      [
        "▁Na",
        -6.978014945983887
      ],
      [
        "▁też",
        -6.981132984161377
      ],
      [
        "▁sobie",
        -6.9943695068359375
      ],
      [
        "ów",
        -6.995635509490967
      ],
      [
        "▁Z",
        -7.000795841217041
      ],
      [
        "▁pan",
        -7.011573791503906
      ],
      [
        "▁lub",
        -7.027749061584473
      ],
      [
        "mi",
        -7.072930812835693
      ],
      [
        "▁by",
        -7.07413911819458
      ],
      [
        "ej",
        -7.079408168792725
      ],
      [
        "▁jednak",
        -7.109963893890381
      ],
      [
        "▁Po",
        -7.112156867980957
      ],
      [
        "▁mu",
        -7.114230155944824
      ],
      [
        "▁tych",
        -7.120269298553467
      ],
      [
        "ę",
        -7.140794277191162
      ],
      [
        "▁jako",
        -7.141025066375732
      ],
      [
        "j",
        -7.1449456214904785
      ],
      [
        "▁ustawy",
        -7.1455397605896
      ],
      [
        "▁także",
        -7.182826995849609
      ],
      [
        "▁Czy",
        -7.185608863830566
      ],
      [
        "▁przed",
        -7.188021659851074
      ],
      [
        "▁te",
        -7.196448802947998
      ],
      [
        "▁nad",
        -7.209382057189941
      ],
      [
        "▁była",
        -7.230530261993408
      ],
      [
        "ych",
        -7.235057830810547
      ],
      [
        "s",
        -7.239673137664795
      ],
      [
        "▁żeby",
        -7.242758274078369
      ],
      [
        "▁również",
        -7.254008293151856
      ],
      [
        "ie",
        -7.273300647735596
      ],
      [
        "▁1",
        -7.308822154998779
      ],
      [
        "▁u",
        -7.311487197875977
      ],
      [
        ").",
        -7.351944446563721
      ],
      [
        "▁więc",
        -7.354402542114258
      ],
      [
        "ami",
        -7.36176347732544
      ],
      [
        "▁nawet",
        -7.3742241859436035
      ],
      [
        "▁aby",
        -7.379575729370117
      ],
      [
        "▁gdy",
        -7.397215843200684
      ],
      [
        "▁która",
        -7.404143810272217
      ],
      [
        "▁lat",
        -7.4043402671813965
      ],
      [
        "▁tu",
        -7.405507564544678
      ],
      [
        "▁Ale",
        -7.4216156005859375
      ],
      [
        "▁bez",
        -7.427457332611084
      ],
      [
        "nie",
        -7.4606733322143555
      ],
      [
        "▁ją",
        -7.465635776519775
      ],
      [
        "▁kiedy",
        -7.466385841369629
      ],
      [
        "▁art",
        -7.467594623565674
      ],
      [
        "▁można",
        -7.482104301452637
      ],
      [
        "▁został",
        -7.4908576011657715
      ],
      [
        "▁dnia",
        -7.499582767486572
      ],
      [
        "▁tam",
        -7.530428886413574
      ],
      [
        "▁niż",
        -7.564650535583496
      ],
      [
        "▁ja",
        -7.572985172271728
      ],
      [
        "▁były",
        -7.588555812835693
      ],
      [
        "▁sposób",
        -7.589344501495361
      ],
      [
        "▁gdzie",
        -7.590954303741455
      ],
      [
        "▁których",
        -7.605205059051514
      ],
      [
        "\".",
        -7.605852127075195
      ],
      [
        "▁pracy",
        -7.60970401763916
      ],
      [
        "▁on",
        -7.61377477645874
      ],
      [
        "ach",
        -7.620183944702148
      ],
      [
        "na",
        -7.623507499694824
      ],
      [
        "▁2",
        -7.626620769500732
      ],
      [
        "▁O",
        -7.6331963539123535
      ],
      [
        "▁pana",
        -7.637703895568848
      ],
      [
        "li",
        -7.639970302581787
      ],
      [
        "go",
        -7.640039920806885
      ],
      [
        "▁teraz",
        -7.647716522216797
      ],
      [
        "▁nr",
        -7.650434494018555
      ],
      [
        "ym",
        -7.654242038726807
      ],
      [
        "by",
        -7.655359268188477
      ],
      [
        "▁Tak",
        -7.664000988006592
      ],
      [
        "▁ta",
        -7.668149471282959
      ],
      [
        "▁pani",
        -7.675406455993652
      ],
      [
        "▁nim",
        -7.678745269775391
      ],
      [
        "▁coś",
        -7.695233821868896
      ],
      [
        "owi",
        -7.695413112640381
      ],
      [
        "▁Dziękuję",
        -7.696587562561035
      ],
      [
        "▁miał",
        -7.696752548217773
      ],
      [
        "),",
        -7.699961185455322
      ],
      [
        "▁nich",
        -7.7030348777771
      ],
      [
        "▁je",
        -7.706780910491943
      ],
      [
        "ka",
        -7.709473133087158
      ],
      [
        "▁sprawie",
        -7.7177510261535645
      ],
      [
        "/",
        -7.71831750869751
      ],
      [
        "▁państwa",
        -7.727104663848877
      ],
      [
        "▁osób",
        -7.734185218811035
      ],
      [
        "▁nas",
        -7.737083911895752
      ],
      [
        "ć",
        -7.739864826202393
      ],
      [
        "▁powiedział",
        -7.74097204208374
      ],
      [
        "▁m",
        -7.755557060241699
      ],
      [
        "▁Jak",
        -7.759955883026123
      ],
      [
        "▁wszystko",
        -7.760150909423828
      ],
      [
        "▁którzy",
        -7.762805938720703
      ],
      [
        "▁jeśli",
        -7.778747081756592
      ],
      [
        "▁Co",
        -7.779587745666504
      ],
      [
        "”",
        -7.784518718719482
      ],
      [
        "▁Do",
        -7.794904232025147
      ],
      [
        "in",
        -7.797820091247559
      ],
      [
        "w",
        -7.800589084625244
      ],
      [
        "▁Panie",
        -7.800881862640381
      ],
      [
        "▁3",
        -7.805437564849853
      ],
      [
        "▁zł",
        -7.811859607696533
      ],
      [
        "▁innych",
        -7.813813209533691
      ],
      [
        "my",
        -7.818156242370605
      ],
      [
        "'",
        -7.823065757751465
      ],
      [
        "▁ci",
        -7.826440811157227
      ],
      [
        "▁nic",
        -7.827938556671143
      ],
      [
        "▁Za",
        -7.846341133117676
      ],
      [
        "▁którym",
        -7.850184917449951
      ],
      [
        "▁niego",
        -7.86529016494751
      ],
      [
        "sz",
        -7.879464149475098
      ],
      [
        "▁wszystkich",
        -7.880363464355469
      ],
      [
        "▁będą",
        -7.888887882232666
      ],
      [
        "▁właśnie",
        -7.903648853302002
      ],
      [
        "▁raz",
        -7.905853748321533
      ],
      [
        "▁takie",
        -7.914453506469727
      ],
      [
        "▁Jest",
        -7.915441989898682
      ],
      [
        "▁iż",
        -7.916018962860107
      ],
      [
        "ki",
        -7.917004585266113
      ],
      [
        "▁albo",
        -7.922670364379883
      ],
      [
        "▁której",
        -7.922763347625732
      ],
      [
        "▁chodzi",
        -7.924389839172363
      ],
      [
        "▁Komisji",
        -7.9340362548828125
      ],
      [
        "▁latach",
        -7.934434413909912
      ],
      [
        "▁Od",
        -7.93611478805542
      ],
      [
        "▁s",
        -7.940420627593994
      ],
      [
        "▁mają",
        -7.942890644073486
      ],
      [
        "▁między",
        -7.952225208282471
      ],
      [
        "▁siebie",
        -7.953358173370361
      ],
      [
        "▁ani",
        -7.95777416229248
      ],
      [
        "▁więcej",
        -7.963690757751465
      ],
      [
        "▁ludzi",
        -7.963810920715332
      ],
      [
        "cie",
        -7.966690063476563
      ],
      [
        "▁wy",
        -7.967162609100342
      ],
      [
        "▁̋",
        -7.978153228759766
      ],
      [
        "▁poseł",
        -7.98526668548584
      ],
      [
        "▁związku",
        -7.986900806427002
      ],
      [
        "▁mam",
        -7.987454891204834
      ],
      [
        "▁chwili",
        -7.999783039093018
      ],
      [
        "▁bardziej",
        -8.004566192626953
      ],
      [
        "om",
        -8.00536823272705
      ],
      [
        "▁we",
        -8.01608657836914
      ],
      [
        "▁Proszę",
        -8.020806312561035
      ],
      [
        "▁4",
        -8.02298641204834
      ],
      [
        "▁ust",
        -8.035689353942871
      ],
      [
        "▁została",
        -8.0394926071167
      ],
      [
        "▁S",
        -8.040892601013184
      ],
      [
        "▁miejsce",
        -8.041728019714355
      ],
      [
        "▁tę",
        -8.043777465820312
      ],
      [
        "▁U",
        -8.046181678771973
      ],
      [
        "ne",
        -8.050490379333496
      ],
      [
        "▁lecz",
        -8.050561904907227
      ],
      [
        "mu",
        -8.051643371582031
      ],
      [
        "▁im",
        -8.053091049194336
      ],
      [
        "z",
        -8.055042266845703
      ],
      [
        "▁czasu",
        -8.062397956848145
      ],
      [
        "k",
        -8.064594268798828
      ],
      [
        "▁Polsce",
        -8.064641952514648
      ],
      [
        "▁proszę",
        -8.065485000610352
      ],
      [
        "c",
        -8.073213577270508
      ],
      [
        "▁wiele",
        -8.073304176330566
      ],
      [
        "▁wszystkie",
        -8.080300331115723
      ],
      [
        "▁Jeśli",
        -8.081467628479004
      ],
      [
        "▁Ja",
        -8.083220481872559
      ],
      [
        "▁sam",
        -8.089990615844727
      ],
      [
        "▁potem",
        -8.090295791625977
      ],
      [
        "▁dobrze",
        -8.09633731842041
      ],
      [
        "▁czas",
        -8.096811294555664
      ],
      [
        "▁czasie",
        -8.101075172424316
      ],
      [
        "▁czym",
        -8.113504409790039
      ],
      [
        "▁niej",
        -8.11421012878418
      ],
      [
        "▁zakresie",
        -8.130208969116211
      ],
      [
        "▁którego",
        -8.13118839263916
      ],
      [
        "ł",
        -8.139690399169922
      ],
      [
        "▁strony",
        -8.140584945678711
      ],
      [
        "▁prawa",
        -8.140905380249023
      ],
      [
        "▁kilka",
        -8.144279479980469
      ],
      [
        "▁pytanie",
        -8.147110939025879
      ],
      [
        "▁trzeba",
        -8.149282455444336
      ],
      [
        "▁należy",
        -8.153481483459473
      ],
      [
        "▁dwa",
        -8.15594482421875
      ],
      [
        "▁5",
        -8.158342361450195
      ],
      [
        "▁10",
        -8.166325569152832
      ],
      [
        "▁ona",
        -8.167471885681152
      ],
      [
        "▁nam",
        -8.175201416015625
      ],
      [
        "▁powiedzieć",
        -8.176589965820312
      ],
      [
        "▁zawsze",
        -8.178391456604004
      ],
      [
        "▁jeden",
        -8.18705940246582
      ],
      [
        "ny",
        -8.187517166137695
      ],
      [
        "ek",
        -8.189963340759277
      ],
      [
        "▁wtedy",
        -8.192090034484863
      ],
      [
        "▁podczas",
        -8.20227336883545
      ],
      [
        "▁tutaj",
        -8.209583282470703
      ],
      [
        "▁No",
        -8.211832046508789
      ],
      [
        "▁życia",
        -8.215242385864258
      ],
      [
        "▁mogą",
        -8.215897560119629
      ],
      [
        "▁uwagę",
        -8.216841697692871
      ],
      [
        "▁wszystkim",
        -8.226086616516113
      ],
      [
        "▁domu",
        -8.22701358795166
      ],
      [
        "no",
        -8.227219581604004
      ],
      [
        "▁ktoś",
        -8.243220329284668
      ],
      [
        "▁mamy",
        -8.24488639831543
      ],
      [
        "▁dzieci",
        -8.246705055236816
      ],
      [
        "n",
        -8.249770164489746
      ],
      [
        "▁Polski",
        -8.25587272644043
      ],
      [
        "nia",
        -8.25984001159668
      ],
      [
        "▁życie",
        -8.262160301208496
      ],
      [
        "▁czyli",
        -8.267021179199219
      ],
      [
        "▁kraju",
        -8.271841049194336
      ],
      [
        "▁swoje",
        -8.275394439697266
      ],
      [
        "▁części",
        -8.280738830566406
      ],
      [
        "▁Pan",
        -8.286275863647461
      ],
      [
        "▁aż",
        -8.287388801574707
      ],
      [
        "▁stanie",
        -8.291892051696777
      ],
      [
        "▁sytuacji",
        -8.293123245239258
      ],
      [
        "▁prze",
        -8.29892635345459
      ],
      [
        "▁ponieważ",
        -8.299077987670898
      ],
      [
        "▁środków",
        -8.29938793182373
      ],
      [
        "▁jeżeli",
        -8.301548957824707
      ],
      [
        "▁nigdy",
        -8.302225112915039
      ],
      [
        "▁zostały",
        -8.302458763122559
      ],
      [
        "▁jakie",
        -8.304032325744629
      ],
      [
        "▁mógł",
        -8.304922103881836
      ],
      [
        "▁wiem",
        -8.305753707885742
      ],
      [
        "▁wielu",
        -8.310212135314941
      ],
      [
        "▁Kto",
        -8.310765266418457
      ],
      [
        "▁taki",
        -8.310962677001953
      ],
      [
        "▁jakby",
        -8.31925106048584
      ],
      [
        "▁temat",
        -8.320244789123535
      ],
      [
        "▁później",
        -8.325298309326172
      ],
      [
        "▁którą",
        -8.331975936889648
      ],
      [
        "end",
        -8.335859298706055
      ],
      [
        "▁temu",
        -8.340930938720703
      ],
      [
        "▁dwóch",
        -8.342050552368164
      ],
      [
        "▁celu",
        -8.343097686767578
      ],
      [
        "▁minister",
        -8.344223976135254
      ],
      [
        "▁inne",
        -8.344286918640137
      ],
      [
        "▁przypadku",
        -8.344390869140625
      ],
      [
        "\":\"",
        -8.347931861877441
      ],
      [
        "▁Jeżeli",
        -8.355820655822754
      ],
      [
        "▁jestem",
        -8.356066703796387
      ],
      [
        "▁panie",
        -8.362035751342773
      ],
      [
        "▁musi",
        -8.365705490112305
      ],
      [
        "▁wobec",
        -8.368651390075684
      ],
      [
        "▁dotyczące",
        -8.369217872619629
      ],
      [
        "▁nią",
        -8.375555038452148
      ],
      [
        "▁miała",
        -8.376537322998047
      ],
      [
        "▁mówi",
        -8.377922058105469
      ],
      [
        "▁tys",
        -8.385601043701172
      ],
      [
        "▁osoby",
        -8.38697624206543
      ],
      [
        "t",
        -8.388909339904785
      ],
      [
        "▁6",
        -8.389678001403809
      ],
      [
        "owe",
        -8.399580001831055
      ],
      [
        "▁działania",
        -8.404095649719238
      ],
      [
        "▁razem",
        -8.409622192382812
      ],
      [
        "▁dlatego",
        -8.410221099853516
      ],
      [
        "▁Kiedy",
        -8.414443969726562
      ],
      [
        "▁projektu",
        -8.417134284973145
      ],
      [
        "▁takich",
        -8.419828414916992
      ],
      [
        "\",\"",
        -8.424844741821289
      ],
      [
        "\",",
        -8.430737495422363
      ],
      [
        "▁prostu",
        -8.431549072265625
      ],
      [
        "▁ministra",
        -8.431838035583496
      ],
      [
        "ce",
        -8.440509796142578
      ],
      [
        "owa",
        -8.447606086730957
      ],
      [
        "▁kto",
        -8.451203346252441
      ],
      [
        "▁zaś",
        -8.451542854309082
      ],
      [
        "”.",
        -8.45219898223877
      ],
      [
        "▁dalej",
        -8.452391624450684
      ],
      [
        "ła",
        -8.453166007995605
      ],
      [
        "▁chyba",
        -8.45993423461914
      ],
      [
        "▁mieć",
        -8.464138984680176
      ],
      [
        "start",
        -8.468720436096191
      ],
      [
        "▁ponad",
        -8.475518226623535
      ],
      [
        "▁wieku",
        -8.47577953338623
      ],
      [
        "▁pierwszy",
        -8.476792335510254
      ],
      [
        "▁głos",
        -8.482245445251465
      ],
      [
        "▁rzeczy",
        -8.4832763671875
      ],
      [
        "▁oczy",
        -8.485433578491211
      ],
      [
        "▁II",
        -8.486197471618652
      ],
      [
        "▁natomiast",
        -8.48664379119873
      ],
      [
        "▁posła",
        -8.487937927246094
      ],
      [
        "▁one",
        -8.487958908081055
      ],
      [
        "▁ludzie",
        -8.49779987335205
      ],
      [
        "▁poza",
        -8.497966766357422
      ],
      [
        "▁ty",
        -8.499567031860352
      ],
      [
        "▁państwo",
        -8.500432014465332
      ],
      [
        "▁ramach",
        -8.503007888793945
      ],
      [
        "▁rzecz",
        -8.503531455993652
      ],
      [
        "▁zmiany",
        -8.50379467010498
      ],
      [
        "▁dni",
        -8.503948211669922
      ],
      [
        "▁spraw",
        -8.50411605834961
      ],
      [
        "▁Może",
        -8.504302024841309
      ],
      [
        "ur",
        -8.509410858154297
      ],
      [
        "owych",
        -8.511422157287598
      ],
      [
        "▁tyle",
        -8.5138578414917
      ],
      [
        "▁gdyby",
        -8.514452934265137
      ],
      [
        "▁cię",
        -8.516715049743652
      ],
      [
        "▁prawo",
        -8.517292976379395
      ],
      [
        "▁sobą",
        -8.517351150512695
      ],
      [
        "▁7",
        -8.517362594604492
      ],
      [
        "A",
        -8.525392532348633
      ],
      [
        "▁trzy",
        -8.526780128479004
      ],
      [
        "▁K",
        -8.527994155883789
      ],
      [
        "▁de",
        -8.530892372131348
      ],
      [
        "▁sprawy",
        -8.531242370605469
      ],
      [
        "­",
        -8.539753913879395
      ],
      [
        "▁wszyscy",
        -8.545336723327637
      ],
      [
        "▁posłów",
        -8.548025131225586
      ],
      [
        "▁trochę",
        -8.548871040344238
      ],
      [
        "▁przecież",
        -8.549055099487305
      ],
      [
        "▁jakieś",
        -8.549817085266113
      ],
      [
        "▁część",
        -8.550849914550781
      ],
      [
        "l",
        -8.55150032043457
      ],
      [
        "▁swoich",
        -8.552340507507324
      ],
      [
        "▁jedynie",
        -8.558399200439453
      ],
      [
        "word",
        -8.558915138244629
      ],
      [
        "ją",
        -8.560921669006348
      ],
      [
        "▁12",
        -8.561209678649902
      ],
      [
        "▁8",
        -8.562337875366211
      ],
      [
        "▁miejscu",
        -8.566739082336426
      ],
      [
        "▁samo",
        -8.56799602508545
      ],
      [
        "▁informacji",
        -8.570629119873047
      ],
      [
        "▁innym",
        -8.575200080871582
      ],
      [
        "▁20",
        -8.578816413879395
      ],
      [
        "▁możliwości",
        -8.581604957580566
      ],
      [
        "▁naprawdę",
        -8.581841468811035
      ],
      [
        "▁15",
        -8.58308219909668
      ],
      [
        "▁rok",
        -8.583161354064941
      ],
      [
        "▁cały",
        -8.586278915405273
      ],
      [
        "▁P",
        -8.586467742919922
      ],
      [
        "▁uwagi",
        -8.587099075317383
      ],
      [
        "▁np",
        -8.588499069213867
      ],
      [
        "▁często",
        -8.59062671661377
      ],
      [
        "▁Bardzo",
        -8.592846870422363
      ],
      [
        "▁projekt",
        -8.593025207519531
      ],
      [
        "p",
        -8.595675468444824
      ],
      [
        "▁prawie",
        -8.601107597351074
      ],
      [
        "▁jednym",
        -8.601889610290527
      ],
      [
        "▁30",
        -8.606216430664062
      ],
      [
        "▁chce",
        -8.60798168182373
      ],
      [
        "▁ku",
        -8.609623908996582
      ],
      [
        "▁jakiś",
        -8.609665870666504
      ],
      [
        "▁takiego",
        -8.610769271850586
      ],
      [
        "▁samym",
        -8.612548828125
      ],
      [
        "owej",
        -8.613975524902344
      ],
      [
        "owy",
        -8.616300582885742
      ],
      [
        "▁M",
        -8.616555213928223
      ],
      [
        "ni",
        -8.619247436523438
      ],
      [
        "▁Rady",
        -8.620593070983887
      ],
      [
        "▁razie",
        -8.623351097106934
      ],
      [
        "▁nieruchomości",
        -8.626769065856934
      ],
      [
        "▁bowiem",
        -8.628089904785156
      ],
      [
        "▁czego",
        -8.628188133239746
      ],
      [
        "▁p",
        -8.62912368774414
      ],
      [
        "▁poprawki",
        -8.629999160766602
      ],
      [
        "▁Bo",
        -8.630341529846191
      ],
      [
        "▁lata",
        -8.630634307861328
      ],
      [
        "▁rząd",
        -8.63105297088623
      ],
      [
        "b",
        -8.631973266601562
      ],
      [
        "▁podstawie",
        -8.632164001464844
      ],
      [
        "▁dzisiaj",
        -8.633526802062988
      ],
      [
        "▁pomocy",
        -8.636481285095215
      ],
      [
        "▁Pani",
        -8.636994361877441
      ],
      [
        "▁swoją",
        -8.640458106994629
      ],
      [
        "▁roz",
        -8.640482902526855
      ],
      [
        "▁choć",
        -8.641975402832031
      ],
      [
        "▁wcześniej",
        -8.64510726928711
      ],
      [
        "▁gdyż",
        -8.647442817687988
      ],
      [
        "▁słowa",
        -8.650671005249023
      ],
      [
        "▁Mam",
        -8.656074523925781
      ],
      [
        "▁pytania",
        -8.661911010742188
      ],
      [
        "▁jaki",
        -8.66199016571045
      ],
      [
        "▁około",
        -8.664338111877441
      ],
      [
        "▁końcu",
        -8.664361000061035
      ],
      [
        "▁byli",
        -8.664392471313477
      ],
      [
        "▁miasta",
        -8.668350219726562
      ],
      [
        "▁Jego",
        -8.671217918395996
      ],
      [
        "▁ile",
        -8.672125816345215
      ],
      [
        "▁stanu",
        -8.674124717712402
      ],
      [
        "▁zgodnie",
        -8.674335479736328
      ],
      [
        "▁zbyt",
        -8.675098419189453
      ],
      [
        "▁chwilę",
        -8.676753044128418
      ],
      [
        "▁stycznia",
        -8.677152633666992
      ],
      [
        "d",
        -8.677450180053711
      ],
      [
        "▁rządu",
        -8.679699897766113
      ],
      [
        "▁mówił",
        -8.681111335754395
      ],
      [
        "▁B",
        -8.684051513671875
      ],
      [
        "▁drugiej",
        -8.690118789672852
      ],
      [
        "▁swoim",
        -8.690415382385254
      ],
      [
        "▁dopiero",
        -8.69327449798584
      ],
      [
        "▁zostało",
        -8.695045471191406
      ],
      [
        "▁Był",
        -8.697845458984375
      ],
      [
        "▁Krakowie",
        -8.698841094970703
      ],
      [
        "▁mogę",
        -8.702402114868164
      ],
      [
        "▁drzwi",
        -8.702522277832031
      ],
      [
        "▁kilku",
        -8.703360557556152
      ],
      [
        "▁9",
        -8.706326484680176
      ],
      [
        "▁takim",
        -8.708134651184082
      ],
      [
        "▁sprawa",
        -8.708845138549805
      ],
      [
        "▁oczywiście",
        -8.710018157958984
      ],
      [
        "▁wniosek",
        -8.71367359161377
      ],
      [
        "▁zrobić",
        -8.716117858886719
      ],
      [
        "za",
        -8.717474937438965
      ],
      [
        "▁wyżej",
        -8.720773696899414
      ],
      [
        "▁11",
        -8.721198081970215
      ],
      [
        "▁jednego",
        -8.721809387207031
      ],
      [
        "▁Komisja",
        -8.722851753234863
      ],
      [
        "▁odpowiedzi",
        -8.728251457214355
      ],
      [
        "▁dzień",
        -8.731402397155762
      ],
      [
        "▁nikt",
        -8.732735633850098
      ],
      [
        "▁początku",
        -8.73619270324707
      ],
      [
        "▁szybko",
        -8.738436698913574
      ],
      [
        "▁mln",
        -8.742223739624023
      ],
      [
        "▁świata",
        -8.742584228515625
      ],
      [
        "▁człowieka",
        -8.743682861328125
      ],
      [
        "▁powodu",
        -8.744071960449219
      ],
      [
        "▁przeciw",
        -8.74530029296875
      ],
      [
        "▁Przy",
        -8.74730396270752
      ],
      [
        "am",
        -8.748225212097168
      ],
      [
        "▁problem",
        -8.755865097045898
      ],
      [
        "▁wraz",
        -8.756932258605957
      ],
      [
        "▁14",
        -8.757929801940918
      ],
      [
        "▁Teraz",
        -8.758113861083984
      ],
      [
        "3",
        -8.761012077331543
      ],
      [
        "▁dwie",
        -8.7639741897583
      ],
      [
        "▁Gdy",
        -8.764869689941406
      ],
      [
        "▁zupełnie",
        -8.767927169799805
      ],
      [
        "▁jednej",
        -8.76960563659668
      ],
      [
        "▁przykład",
        -8.77157211303711
      ],
      [
        "▁udział",
        -8.772688865661621
      ],
      [
        "▁coraz",
        -8.775651931762695
      ],
      [
        "▁Sejmu",
        -8.776905059814453
      ],
      [
        "▁przede",
        -8.781075477600098
      ],
      [
        "▁głową",
        -8.78759479522705
      ],
      [
        "▁Europejskiej",
        -8.787801742553711
      ],
      [
        "▁wśród",
        -8.788761138916016
      ],
      [
        "owego",
        -8.789230346679688
      ],
      [
        "▁obecnie",
        -8.790976524353027
      ],
      [
        "▁my",
        -8.791446685791016
      ],
      [
        "▁mniej",
        -8.791613578796387
      ],
      [
        "▁grudnia",
        -8.791662216186523
      ],
      [
        "ia",
        -8.79281997680664
      ],
      [
        "▁ciągu",
        -8.796224594116211
      ],
      [
        "▁swojej",
        -8.798068046569824
      ],
      [
        "▁komisji",
        -8.80056381225586
      ],
      [
        "▁panu",
        -8.800808906555176
      ],
      [
        "▁Wy",
        -8.801213264465332
      ],
      [
        "▁każdy",
        -8.804376602172852
      ],
      [
        "▁miejsca",
        -8.806869506835938
      ],
      [
        "▁będziemy",
        -8.809515953063965
      ],
      [
        "▁powiedziała",
        -8.810629844665527
      ],
      [
        "▁budżetu",
        -8.811857223510742
      ],
      [
        "▁rodzaju",
        -8.813544273376465
      ],
      [
        "▁Marszałku",
        -8.814996719360352
      ],
      [
        "ną",
        -8.815400123596191
      ],
      [
        "r",
        -8.816468238830566
      ],
      [
        "▁sprawę",
        -8.817863464355469
      ],
      [
        "▁względu",
        -8.823232650756836
      ],
      [
        "▁wysokości",
        -8.825637817382812
      ],
      [
        "▁działalności",
        -8.826469421386719
      ],
      [
        "▁taka",
        -8.826624870300293
      ],
      [
        "▁września",
        -8.828609466552734
      ],
      [
        "▁najbardziej",
        -8.830751419067383
      ],
      [
        "▁nimi",
        -8.831459045410156
      ],
      [
        "▁Unii",
        -8.831581115722656
      ],
      [
        "▁zarówno",
        -8.831787109375
      ],
      [
        "▁ogóle",
        -8.83456039428711
      ],
      [
        "W",
        -8.836109161376953
      ],
      [
        "▁dlaczego",
        -8.84076976776123
      ],
      [
        "▁maja",
        -8.841202735900879
      ],
      [
        "▁będę",
        -8.841706275939941
      ],
      [
        "▁dziś",
        -8.844219207763672
      ],
      [
        "▁czerwca",
        -8.846219062805176
      ],
      [
        "▁lipca",
        -8.846822738647461
      ],
      [
        "▁Dlatego",
        -8.84815502166748
      ],
      [
        "▁człowiek",
        -8.848669052124023
      ],
      [
        "▁dużo",
        -8.8486909866333
      ],
      [
        "▁takiej",
        -8.84954833984375
      ],
      [
        "▁różnych",
        -8.851665496826172
      ],
      [
        "▁13",
        -8.852890014648438
      ],
      [
        "▁pewno",
        -8.861551284790039
      ],
      [
        "▁myśli",
        -8.863415718078613
      ],
      [
        "▁pierwsze",
        -8.863917350769043
      ],
      [
        "▁okresie",
        -8.865160942077637
      ],
      [
        "▁końca",
        -8.866613388061523
      ],
      [
        "▁możliwość",
        -8.86697769165039
      ],
      [
        "ło",
        -8.867058753967285
      ],
      [
        "▁dość",
        -8.8674898147583
      ],
      [
        "S",
        -8.871318817138672
      ],
      [
        "ze",
        -8.87490463256836
      ],
      [
        "▁marca",
        -8.876197814941406
      ],
      [
        "ły",
        -8.877116203308105
      ],
      [
        "▁swój",
        -8.87775707244873
      ],
      [
        "▁Ta",
        -8.880611419677734
      ],
      [
        "▁działań",
        -8.881291389465332
      ],
      [
        "▁of",
        -8.881571769714355
      ],
      [
        "▁stronę",
        -8.882960319519043
      ],
      [
        "▁porządku",
        -8.883212089538574
      ],
      [
        "▁ok",
        -8.884308815002441
      ],
      [
        "▁przepisów",
        -8.886553764343262
      ],
      [
        "▁Kraków",
        -8.889756202697754
      ],
      [
        "▁systemu",
        -8.890174865722656
      ],
      [
        "▁stanowisko",
        -8.893442153930664
      ],
      [
        "▁wówczas",
        -8.894290924072266
      ],
      [
        "▁dniu",
        -8.894400596618652
      ],
      [
        "▁mój",
        -8.894569396972656
      ],
      [
        "▁Sejm",
        -8.894768714904785
      ],
      [
        "ową",
        -8.895313262939453
      ],
      [
        "▁sie",
        -8.900260925292969
      ],
      [
        "▁środki",
        -8.900354385375977
      ],
      [
        "▁Ten",
        -8.900802612304688
      ],
      [
        "▁chciał",
        -8.901169776916504
      ],
      [
        "ymi",
        -8.904306411743164
      ],
      [
        "▁J",
        -8.904541969299316
      ],
      [
        "iem",
        -8.904576301574707
      ],
      [
        "▁mieli",
        -8.905288696289062
      ],
      [
        "▁mimo",
        -8.906928062438965
      ],
      [
        "▁jedną",
        -8.907922744750977
      ],
      [
        "▁moje",
        -8.907990455627441
      ],
      [
        "▁jedno",
        -8.909543991088867
      ],
      [
        "▁taką",
        -8.909628868103027
      ],
      [
        "▁16",
        -8.91113567352295
      ],
      [
        "▁lepiej",
        -8.911645889282227
      ],
      [
        "’",
        -8.91165542602539
      ],
      [
        "▁postępowanie",
        -8.91292667388916
      ],
      [
        "▁Natomiast",
        -8.91299819946289
      ],
      [
        "▁każdym",
        -8.91307544708252
      ],
      [
        "▁Warszawa",
        -8.914648056030273
      ],
      [
        "▁Oczywiście",
        -8.915233612060547
      ],
      [
        "▁realizacji",
        -8.919429779052734
      ],
      [
        "▁no",
        -8.920093536376953
      ],
      [
        "2",
        -8.920554161071777
      ],
      [
        "▁postępowania",
        -8.921319007873535
      ],
      [
        "▁C",
        -8.922036170959473
      ],
      [
        "▁ziemi",
        -8.922410011291504
      ],
      [
        "▁oni",
        -8.923471450805664
      ],
      [
        "▁wojny",
        -8.924833297729492
      ],
      [
        "▁wynika",
        -8.925675392150879
      ],
      [
        "▁powinien",
        -8.9273681640625
      ],
      [
        "▁zostanie",
        -8.927489280700684
      ],
      [
        "nych",
        -8.927957534790039
      ],
      [
        "▁swego",
        -8.930071830749512
      ],
      [
        "▁według",
        -8.930679321289062
      ],
      [
        "▁głosu",
        -8.930785179138184
      ],
      [
        "po",
        -8.932936668395996
      ],
      [
        "▁koniec",
        -8.935457229614258
      ],
      [
        "▁prowadzone",
        -8.936727523803711
      ],
      [
        "▁E",
        -8.937247276306152
      ],
      [
        "▁dotyczy",
        -8.938109397888184
      ],
      [
        "▁wie",
        -8.938765525817871
      ],
      [
        "ku",
        -8.939618110656738
      ],
      [
        "liśmy",
        -8.939682006835938
      ],
      [
        "▁D",
        -8.940797805786133
      ],
      [
        "▁prokuratury",
        -8.942849159240723
      ],
      [
        "▁stało",
        -8.945008277893066
      ],
      [
        "▁prac",
        -8.945329666137695
      ],
      [
        "▁rozwoju",
        -8.94826602935791
      ],
      [
        "▁kierunku",
        -8.94864559173584
      ],
      [
        "▁października",
        -8.952329635620117
      ],
      [
        "▁typu",
        -8.953927040100098
      ],
      [
        "▁2012",
        -8.95596981048584
      ],
      [
        "▁zmian",
        -8.956356048583984
      ],
      [
        "▁żadnych",
        -8.956390380859375
      ],
      [
        "▁grupy",
        -8.956759452819824
      ],
      [
        "▁Według",
        -8.958231925964355
      ],
      [
        "▁kwietnia",
        -8.958941459655762
      ],
      [
        "▁nadal",
        -8.959964752197266
      ],
      [
        "▁prawda",
        -8.960296630859375
      ],
      [
        "▁nagle",
        -8.960418701171875
      ],
      [
        "▁zaczął",
        -8.96049976348877
      ],
      [
        "▁możemy",
        -8.964362144470215
      ],
      [
        "▁przeszłości",
        -8.965725898742676
      ],
      [
        "▁innymi",
        -8.967657089233398
      ],
      [
        "▁drogi",
        -8.96994400024414
      ],
      [
        "▁zdrowia",
        -8.970897674560547
      ],
      [
        "▁rynku",
        -8.971809387207031
      ],
      [
        "▁znowu",
        -8.97186279296875
      ],
      [
        "▁śmierci",
        -8.973703384399414
      ],
      [
        "▁całą",
        -8.974352836608887
      ],
      [
        "▁rękę",
        -8.975223541259766
      ],
      [
        "▁danych",
        -8.976886749267578
      ],
      [
        "”,",
        -8.977721214294434
      ],
      [
        "▁innego",
        -8.979195594787598
      ],
      [
        "▁zatem",
        -8.981379508972168
      ],
      [
        ".)",
        -8.982306480407715
      ],
      [
        "▁ustawa",
        -8.982312202453613
      ],
      [
        "▁dzięki",
        -8.983525276184082
      ],
      [
        "eś",
        -8.986455917358398
      ],
      [
        "▁trzech",
        -8.98764419555664
      ],
      [
        "▁ręce",
        -8.987680435180664
      ],
      [
        "▁pomiędzy",
        -8.988176345825195
      ],
      [
        "▁stronie",
        -8.98874568939209
      ],
      [
        "▁poprzez",
        -8.990254402160645
      ],
      [
        "▁obok",
        -8.993335723876953
      ],
      [
        "▁decyzji",
        -8.995912551879883
      ],
      [
        "▁znajduje",
        -8.995985984802246
      ],
      [
        "▁chcę",
        -8.997586250305176
      ],
      [
        "▁18",
        -9.000094413757324
      ],
      [
        "▁Wysoka",
        -9.001182556152344
      ],
      [
        "▁Polska",
        -9.001577377319336
      ],
      [
        "▁sierpnia",
        -9.002748489379883
      ],
      [
        "▁Pod",
        -9.003509521484375
      ],
      [
        "▁niektórych",
        -9.00448226928711
      ],
      [
        "kę",
        -9.005768775939941
      ],
      [
        "▁moim",
        -9.0062255859375
      ],
      [
        "▁tą",
        -9.0067138671875
      ],
      [
        "▁Dlaczego",
        -9.007786750793455
      ],
      [
        "▁ustawie",
        -9.007848739624023
      ],
      [
        "▁twarz",
        -9.012125015258787
      ],
      [
        "▁Przez",
        -9.012295722961426
      ],
      [
        "▁the",
        -9.012757301330566
      ],
      [
        "▁pkt",
        -9.01303005218506
      ],
      [
        "▁długo",
        -9.013968467712402
      ],
      [
        "▁mieszkańców",
        -9.015027046203612
      ],
      [
        "▁listopada",
        -9.017126083374023
      ],
      [
        "▁wydaje",
        -9.02072811126709
      ],
      [
        "▁byłoby",
        -9.023858070373535
      ],
      [
        "▁świecie",
        -9.026418685913086
      ],
      [
        "▁naszej",
        -9.02692413330078
      ],
      [
        "▁rodziny",
        -9.029221534729004
      ],
      [
        "▁raczej",
        -9.0305757522583
      ],
      [
        "▁następnie",
        -9.031814575195312
      ],
      [
        "niu",
        -9.032240867614746
      ],
      [
        "▁poz",
        -9.03262996673584
      ],
      [
        "▁ciebie",
        -9.032892227172852
      ],
      [
        "▁17",
        -9.03393840789795
      ],
      [
        "owym",
        -9.034173965454102
      ],
      [
        "▁masz",
        -9.03463649749756
      ],
      [
        "ś",
        -9.035554885864258
      ],
      [
        "▁naszych",
        -9.0377197265625
      ],
      [
        "▁przewodniczący",
        -9.041892051696776
      ],
      [
        "▁zwłaszcza",
        -9.04223918914795
      ],
      [
        "▁G",
        -9.043014526367188
      ],
      [
        "uje",
        -9.043478965759276
      ],
      [
        "▁25",
        -9.044703483581545
      ],
      [
        "ko",
        -9.045904159545898
      ],
      [
        "▁pracowników",
        -9.046588897705078
      ],
      [
        "▁terenie",
        -9.047751426696776
      ],
      [
        "▁stosunku",
        -9.048877716064451
      ],
      [
        "▁drodze",
        -9.048993110656738
      ],
      [
        "▁chciałbym",
        -9.050294876098633
      ],
      [
        "▁pokoju",
        -9.051040649414062
      ],
      [
        "cy",
        -9.052045822143556
      ],
      [
        "▁R",
        -9.05280590057373
      ],
      [
        "▁razy",
        -9.054182052612305
      ],
      [
        "ką",
        -9.05599880218506
      ],
      [
        "to",
        -9.057162284851074
      ],
      [
        "▁programu",
        -9.058079719543455
      ],
      [
        "do",
        -9.058475494384766
      ],
      [
        "ca",
        -9.058551788330078
      ],
      [
        "▁Państwa",
        -9.059558868408203
      ],
      [
        "▁in",
        -9.060964584350586
      ],
      [
        "▁głowę",
        -9.06199836730957
      ],
      [
        "▁przeciwko",
        -9.062581062316896
      ],
      [
        "▁wciąż",
        -9.062593460083008
      ],
      [
        "▁mogła",
        -9.062942504882812
      ],
      [
        "▁praw",
        -9.064162254333496
      ],
      [
        "▁nowych",
        -9.065468788146973
      ],
      [
        "▁tzw",
        -9.066152572631836
      ],
      [
        "▁znaczy",
        -9.067002296447754
      ],
      [
        "▁wątpliwości",
        -9.068026542663574
      ],
      [
        "▁pół",
        -9.068238258361816
      ],
      [
        "▁nowe",
        -9.071015357971191
      ],
      [
        "▁stan",
        -9.072537422180176
      ],
      [
        "▁brak",
        -9.073566436767578
      ],
      [
        "▁ochrony",
        -9.07371997833252
      ],
      [
        "▁Już",
        -9.074153900146484
      ],
      [
        "▁polskich",
        -9.076035499572754
      ],
      [
        "▁T",
        -9.079096794128418
      ],
      [
        "▁przedsiębiorstw",
        -9.082036018371582
      ],
      [
        "▁związane",
        -9.082554817199709
      ],
      [
        "▁wreszcie",
        -9.083690643310549
      ],
      [
        "▁pierwszej",
        -9.085620880126951
      ],
      [
        "▁wniosku",
        -9.085894584655762
      ],
      [
        "▁kontroli",
        -9.085922241210938
      ],
      [
        "▁system",
        -9.087169647216797
      ],
      [
        "▁stał",
        -9.087847709655762
      ],
      [
        "▁Te",
        -9.088582992553713
      ],
      [
        "▁drugi",
        -9.090639114379885
      ],
      [
        "▁naszego",
        -9.092657089233398
      ],
      [
        "▁poprzednim",
        -9.095088958740234
      ],
      [
        "ci",
        -9.09593105316162
      ],
      [
        "▁rzekł",
        -9.097881317138672
      ],
      [
        "▁punktu",
        -9.098003387451172
      ],
      [
        "▁szczególnie",
        -9.099961280822754
      ],
      [
        "ować",
        -9.101238250732422
      ],
      [
        "▁zmianie",
        -9.10392951965332
      ],
      [
        "▁całej",
        -9.104422569274902
      ],
      [
        "▁musiał",
        -9.104541778564451
      ],
      [
        "▁kryteria",
        -9.10458278656006
      ],
      [
        "▁24",
        -9.105132102966309
      ],
      [
        "▁jedna",
        -9.106711387634276
      ],
      [
        "er",
        -9.10730266571045
      ],
      [
        "▁2010",
        -9.108601570129396
      ],
      [
        "▁swojego",
        -9.10926914215088
      ],
      [
        "▁da",
        -9.109726905822754
      ],
      [
        "▁rzeczywiście",
        -9.109908103942873
      ],
      [
        "▁*",
        -9.112357139587402
      ],
      [
        "▁aktualnie",
        -9.113489151000977
      ],
      [
        "▁samego",
        -9.116876602172852
      ],
      [
        "▁organizacyjnych",
        -9.117269515991213
      ],
      [
        "▁Polskiej",
        -9.119770050048828
      ],
      [
        "▁polskiego",
        -9.11994171142578
      ],
      [
        "▁nasze",
        -9.12018871307373
      ],
      [
        "▁21",
        -9.120928764343262
      ],
      [
        "▁lutego",
        -9.120993614196776
      ],
      [
        "▁Jednak",
        -9.121051788330078
      ],
      [
        "▁kwestii",
        -9.122684478759766
      ],
      [
        "h",
        -9.123512268066406
      ],
      [
        "▁pewne",
        -9.12545680999756
      ],
      [
        "▁jesteś",
        -9.126873016357422
      ],
      [
        "▁pierwszym",
        -9.127294540405272
      ],
      [
        "▁znów",
        -9.12756633758545
      ],
      [
        "▁chociaż",
        -9.128323554992676
      ],
      [
        "▁Regionalne",
        -9.129644393920898
      ],
      [
        "▁tysięcy",
        -9.129990577697754
      ],
      [
        "1",
        -9.130400657653809
      ],
      [
        "▁zdaniem",
        -9.13202667236328
      ],
      [
        "▁głosowania",
        -9.13212776184082
      ],
      [
        "▁nadzieję",
        -9.13235855102539
      ],
      [
        "▁pieniądze",
        -9.133123397827148
      ],
      [
        "ta",
        -9.133488655090332
      ],
      [
        "g",
        -9.133584976196287
      ],
      [
        "▁publicznych",
        -9.13381004333496
      ],
      [
        "▁wyniku",
        -9.134286880493164
      ],
      [
        "▁organizacji",
        -9.134363174438477
      ],
      [
        "▁Chciałbym",
        -9.135376930236816
      ],
      [
        "wy",
        -9.135570526123049
      ],
      [
        "▁Ministrów",
        -9.139042854309082
      ],
      [
        "▁twarzy",
        -9.139548301696776
      ],
      [
        "▁zadań",
        -9.142699241638184
      ],
      [
        "▁mówić",
        -9.142881393432615
      ],
      [
        "▁dotyczącym",
        -9.142987251281738
      ],
      [
        "▁znacznie",
        -9.144135475158691
      ],
      [
        "▁miały",
        -9.144429206848145
      ],
      [
        "▁przekazania",
        -9.144603729248049
      ],
      [
        "▁pracę",
        -9.148725509643556
      ],
      [
        "▁Ma",
        -9.14884090423584
      ],
      [
        "▁Ministerstwo",
        -9.149600982666016
      ],
      [
        "ul",
        -9.150506019592283
      ],
      [
        "▁jesteśmy",
        -9.153432846069336
      ],
      [
        "▁stanowi",
        -9.153470039367676
      ],
      [
        "▁nieco",
        -9.154048919677734
      ],
      [
        "_",
        -9.154233932495115
      ],
      [
        "▁1.",
        -9.155128479003906
      ],
      [
        "f",
        -9.15544891357422
      ],
      [
        "▁wody",
        -9.15549087524414
      ],
      [
        "▁L",
        -9.15589427947998
      ],
      [
        "▁sama",
        -9.156349182128906
      ],
      [
        "▁jednostkach",
        -9.157288551330566
      ],
      [
        "▁szkoły",
        -9.157382011413574
      ],
      [
        "▁31",
        -9.158321380615234
      ],
      [
        "▁ul",
        -9.16127109527588
      ],
      [
        "▁22",
        -9.161707878112791
      ],
      [
        "▁życiu",
        -9.165094375610352
      ],
      [
        "▁wskazane",
        -9.16547966003418
      ],
      [
        "▁2.",
        -9.166107177734377
      ],
      [
        "▁wyłącznie",
        -9.167112350463867
      ],
      [
        "▁Potem",
        -9.169440269470217
      ],
      [
        "▁km",
        -9.17090129852295
      ],
      [
        "▁l",
        -9.174356460571287
      ],
      [
        "▁jednocześnie",
        -9.177010536193848
      ],
      [
        "▁Tylko",
        -9.179180145263672
      ],
      [
        "▁was",
        -9.180548667907717
      ],
      [
        "▁momencie",
        -9.181153297424316
      ],
      [
        "▁mojej",
        -9.181161880493164
      ],
      [
        "▁głowy",
        -9.181390762329102
      ],
      [
        "▁polityki",
        -9.181632995605469
      ],
      [
        "▁19",
        -9.18281078338623
      ],
      [
        "▁Myślę",
        -9.18378734588623
      ],
      [
        "od",
        -9.18655014038086
      ],
      [
        "le",
        -9.186797142028809
      ],
      [
        "▁kobiety",
        -9.188833236694336
      ],
      [
        "▁Prokuratorow",
        -9.189542770385742
      ],
      [
        "▁nocy",
        -9.19013500213623
      ],
      [
        "▁głównie",
        -9.191697120666504
      ],
      [
        "▁inaczej",
        -9.192635536193848
      ],
      [
        "▁powinna",
        -9.1930513381958
      ],
      [
        "▁członków",
        -9.196703910827637
      ],
      [
        "Rzeczypospolitej",
        -9.197698593139648
      ],
      [
        "▁gminy",
        -9.198887825012209
      ],
      [
        "▁jakim",
        -9.198902130126951
      ],
      [
        "▁trakcie",
        -9.200078010559082
      ],
      [
        "▁miało",
        -9.203786849975586
      ],
      [
        "▁służby",
        -9.204209327697754
      ],
      [
        "▁przynajmniej",
        -9.206682205200195
      ],
      [
        "▁udało",
        -9.210488319396973
      ],
      [
        "▁naszym",
        -9.211002349853516
      ],
      [
        "▁podległych",
        -9.212077140808104
      ],
      [
        "▁2011",
        -9.212481498718262
      ],
      [
        "▁Warszawie",
        -9.21462059020996
      ],
      [
        "▁III",
        -9.215603828430176
      ],
      [
        "▁bezpieczeństwa",
        -9.216897010803224
      ],
      [
        "▁Jeszcze",
        -9.217816352844238
      ],
      [
        "▁bądź",
        -9.218901634216309
      ],
      [
        "▁dokładnie",
        -9.219745635986328
      ],
      [
        "▁Tu",
        -9.220382690429688
      ],
      [
        "▁prawidłowości",
        -9.22060775756836
      ],
      [
        "▁wsi",
        -9.22157096862793
      ],
      [
        "▁2009",
        -9.221932411193848
      ],
      [
        "▁zostać",
        -9.225685119628906
      ],
      [
        "▁Prze",
        -9.22623348236084
      ],
      [
        "▁przygotowawcze",
        -9.227824211120604
      ],
      [
        "▁wartości",
        -9.22834300994873
      ],
      [
        "▁większość",
        -9.229615211486816
      ],
      [
        "▁2008",
        -9.229634284973145
      ],
      [
        "▁opinii",
        -9.229708671569824
      ],
      [
        "▁fakt",
        -9.230185508728027
      ],
      [
        "▁podmiotom",
        -9.231890678405762
      ],
      [
        "▁podatku",
        -9.23273468017578
      ],
      [
        "▁k",
        -9.23361587524414
      ],
      [
        "▁F",
        -9.23564624786377
      ],
      [
        "D",
        -9.235725402832031
      ],
      [
        "▁t",
        -9.238998413085938
      ],
      [
        "▁mogli",
        -9.239021301269531
      ],
      [
        "▁'",
        -9.23939037322998
      ],
      [
        "▁możliwe",
        -9.239882469177246
      ],
      [
        "▁Jan",
        -9.23991870880127
      ],
      [
        "▁Dla",
        -9.24050521850586
      ],
      [
        "▁zasady",
        -9.24067211151123
      ],
      [
        "▁inny",
        -9.240674018859863
      ],
      [
        "▁sali",
        -9.240859985351562
      ],
      [
        "▁dyskusji",
        -9.241008758544922
      ],
      [
        "▁działalność",
        -9.241240501403809
      ],
      [
        "zy",
        -9.24260711669922
      ],
      [
        "▁natychmiast",
        -9.243538856506348
      ],
      [
        "▁d",
        -9.24366569519043
      ],
      [
        "▁Izbo",
        -9.244672775268556
      ],
      [
        "▁umowy",
        -9.245447158813477
      ],
      [
        "▁mną",
        -9.247190475463867
      ],
      [
        "▁pomoc",
        -9.247556686401367
      ],
      [
        "▁niemal",
        -9.248225212097168
      ],
      [
        "▁23",
        -9.249885559082031
      ],
      [
        "▁2013",
        -9.251026153564451
      ],
      [
        "▁Są",
        -9.251505851745604
      ],
      [
        "C",
        -9.252533912658691
      ],
      [
        "▁ruchu",
        -9.252774238586426
      ],
      [
        "▁jednostki",
        -9.252886772155762
      ],
      [
        "▁informacje",
        -9.252959251403809
      ],
      [
        "▁zadania",
        -9.254964828491213
      ],
      [
        "▁razu",
        -9.25572681427002
      ],
      [
        "▁świat",
        -9.255823135375977
      ],
      [
        "▁gospodarki",
        -9.25692367553711
      ],
      [
        "▁liczby",
        -9.257523536682127
      ],
      [
        "▁zapytał",
        -9.257735252380373
      ],
      [
        "▁polskiej",
        -9.258075714111328
      ],
      [
        "▁V",
        -9.260552406311035
      ],
      [
        "▁27",
        -9.260586738586426
      ],
      [
        "▁dziecko",
        -9.261672019958496
      ],
      [
        "▁przepisy",
        -9.262146949768066
      ],
      [
        "▁kiedyś",
        -9.262184143066406
      ],
      [
        "▁29",
        -9.262939453125
      ],
      [
        "▁jaką",
        -9.266624450683594
      ],
      [
        "▁Jestem",
        -9.266938209533691
      ],
      [
        "▁oznacza",
        -9.268123626708984
      ],
      [
        "▁sytuacja",
        -9.268582344055176
      ],
      [
        "K",
        -9.269512176513672
      ],
      [
        "▁e",
        -9.270136833190918
      ],
      [
        "▁odpowiedź",
        -9.271007537841797
      ],
      [
        "▁wskazanej",
        -9.271055221557615
      ],
      [
        "▁zapytaniu",
        -9.27235984802246
      ],
      [
        "▁powinno",
        -9.272459030151367
      ],
      [
        "▁historii",
        -9.27308464050293
      ],
      [
        "▁Ministerstwa",
        -9.273682594299316
      ],
      [
        "▁właścicielom",
        -9.273929595947266
      ],
      [
        "▁Spraw",
        -9.275094032287598
      ],
      [
        "▁wiedział",
        -9.275426864624023
      ],
      [
        "▁wcale",
        -9.276771545410156
      ],
      [
        "▁miesięcy",
        -9.2821626663208
      ],
      [
        "▁mało",
        -9.284072875976562
      ],
      [
        "▁różne",
        -9.284096717834473
      ],
      [
        "▁dotyczących",
        -9.284334182739258
      ],
      [
        "▁widzę",
        -9.28541088104248
      ],
      [
        "▁n",
        -9.286588668823242
      ],
      [
        "▁Gminę",
        -9.28687858581543
      ],
      [
        "▁wokół",
        -9.287792205810549
      ],
      [
        "▁Miejską",
        -9.287890434265137
      ],
      [
        "▁postaci",
        -9.28854274749756
      ],
      [
        "▁Minister",
        -9.289531707763672
      ],
      [
        "owie",
        -9.290989875793455
      ],
      [
        "▁produkcji",
        -9.292606353759766
      ],
      [
        "▁odparł",
        -9.29379653930664
      ],
      [
        "▁zm",
        -9.29509735107422
      ],
      [
        "▁obu",
        -9.299753189086914
      ],
      [
        "▁nowego",
        -9.300918579101562
      ],
      [
        "P",
        -9.302312850952148
      ],
      [
        "▁imieniu",
        -9.302343368530272
      ],
      [
        "▁poziomie",
        -9.302573204040527
      ],
      [
        "▁pewien",
        -9.30506706237793
      ],
      [
        "▁kolei",
        -9.305843353271484
      ],
      [
        "▁wyraźnie",
        -9.306212425231934
      ],
      [
        "▁zanim",
        -9.30734634399414
      ],
      [
        "▁On",
        -9.30886936187744
      ],
      [
        "▁[",
        -9.310215950012209
      ],
      [
        "▁posiedzeniu",
        -9.31173038482666
      ],
      [
        "▁mówiąc",
        -9.312546730041504
      ],
      [
        "▁myśl",
        -9.31307888031006
      ],
      [
        "(",
        -9.314386367797852
      ],
      [
        "▁całe",
        -9.314412117004396
      ],
      [
        "ż",
        -9.314477920532228
      ],
      [
        "▁wiadomo",
        -9.314830780029297
      ],
      [
        "▁względem",
        -9.316388130187988
      ],
      [
        "ska",
        -9.3164644241333
      ],
      [
        "▁drugie",
        -9.317198753356934
      ],
      [
        "▁rozwiązania",
        -9.317787170410156
      ],
      [
        "▁zaraz",
        -9.318471908569336
      ],
      [
        "B",
        -9.318687438964844
      ],
      [
        "nej",
        -9.318840026855469
      ],
      [
        "en",
        -9.321456909179688
      ],
      [
        "kiem",
        -9.321778297424316
      ],
      [
        "▁istnieje",
        -9.323196411132812
      ],
      [
        "▁ponownie",
        -9.3232421875
      ],
      [
        "▁żadnego",
        -9.323357582092283
      ],
      [
        "▁RP",
        -9.32468032836914
      ],
      [
        "▁znaleźć",
        -9.324834823608398
      ],
      [
        "▁Europy",
        -9.327642440795898
      ],
      [
        "▁28",
        -9.327826499938965
      ],
      [
        "▁moja",
        -9.329511642456056
      ],
      [
        "la",
        -9.330753326416016
      ],
      [
        "▁26",
        -9.331866264343262
      ],
      [
        "▁100",
        -9.332318305969238
      ],
      [
        "▁stanowiska",
        -9.333109855651855
      ],
      [
        "▁robić",
        -9.333503723144531
      ],
      [
        "▁okres",
        -9.334930419921877
      ],
      [
        "▁pieniędzy",
        -9.335277557373049
      ],
      [
        "▁wrażenie",
        -9.335390090942385
      ],
      [
        "M",
        -9.33618450164795
      ],
      [
        "▁spełniało",
        -9.336413383483888
      ],
      [
        "▁program",
        -9.33706760406494
      ],
      [
        "▁miasto",
        -9.337357521057127
      ],
      [
        "▁2007",
        -9.3410062789917
      ],
      [
        "▁Nawet",
        -9.343928337097168
      ],
      [
        "ków",
        -9.344006538391112
      ],
      [
        "▁minut",
        -9.344630241394045
      ],
      [
        "▁społecznej",
        -9.34641456604004
      ],
      [
        "▁uprzejmie",
        -9.346941947937012
      ],
      [
        "▁poszczególnych",
        -9.34755039215088
      ],
      [
        "▁Prawo",
        -9.349818229675291
      ],
      [
        "▁charakter",
        -9.350507736206056
      ],
      [
        "▁H",
        -9.35137939453125
      ],
      [
        "▁prezydenta",
        -9.353996276855469
      ],
      [
        "▁siły",
        -9.357122421264648
      ],
      [
        "nego",
        -9.357711791992188
      ],
      [
        "▁powinny",
        -9.35805320739746
      ],
      [
        "▁Ponadto",
        -9.358932495117188
      ],
      [
        "▁ciała",
        -9.35962963104248
      ],
      [
        "▁Senatu",
        -9.360969543457031
      ],
      [
        "▁władzy",
        -9.361166954040527
      ],
      [
        "▁opieki",
        -9.362184524536133
      ],
      [
        "ja",
        -9.364734649658203
      ],
      [
        "▁Ci",
        -9.366870880126951
      ],
      [
        "▁muszą",
        -9.36910915374756
      ],
      [
        "▁Nic",
        -9.37001609802246
      ],
      [
        "▁czasem",
        -9.37034034729004
      ],
      [
        "▁prace",
        -9.370362281799316
      ],
      [
        "▁środowiska",
        -9.370464324951172
      ],
      [
        "▁samej",
        -9.37083911895752
      ],
      [
        "▁dzieje",
        -9.37121868133545
      ],
      [
        "▁2004",
        -9.371814727783203
      ],
      [
        "▁niczym",
        -9.371925354003906
      ],
      [
        "▁związanych",
        -9.372573852539062
      ],
      [
        "ty",
        -9.37269401550293
      ],
      [
        "▁cztery",
        -9.372971534729004
      ],
      [
        "ość",
        -9.373260498046877
      ],
      [
        "▁Pana",
        -9.375104904174805
      ],
      [
        "pl",
        -9.375701904296877
      ],
      [
        "▁widać",
        -9.375715255737305
      ],
      [
        "O",
        -9.37611961364746
      ],
      [
        "▁skład",
        -9.37639617919922
      ],
      [
        "▁ostatnich",
        -9.378862380981444
      ],
      [
        "▁Zgodnie",
        -9.379929542541504
      ],
      [
        "▁b",
        -9.38056182861328
      ],
      [
        "▁2017",
        -9.380574226379396
      ],
      [
        "▁administracji",
        -9.380577087402344
      ],
      [
        "▁ojciec",
        -9.383796691894531
      ],
      [
        "▁USA",
        -9.386512756347656
      ],
      [
        "owo",
        -9.387567520141602
      ],
      [
        "▁najmniej",
        -9.387799263000488
      ],
      [
        "▁dziecka",
        -9.389422416687012
      ],
      [
        "▁mocno",
        -9.391093254089355
      ],
      [
        "▁trudno",
        -9.391907691955566
      ],
      [
        "▁Była",
        -9.392085075378418
      ],
      [
        "▁The",
        -9.392204284667969
      ],
      [
        "Dz",
        -9.3929443359375
      ],
      [
        "▁zresztą",
        -9.39302921295166
      ],
      [
        "▁Gdyby",
        -9.394307136535645
      ],
      [
        "▁ustaw",
        -9.394490242004396
      ],
      [
        "▁właściwie",
        -9.397306442260742
      ],
      [
        "^",
        -9.39788818359375
      ],
      [
        "▁2014",
        -9.398472785949709
      ],
      [
        "▁swej",
        -9.399884223937988
      ],
      [
        "▁widzenia",
        -9.399884223937988
      ],
      [
        "]",
        -9.40054988861084
      ],
      [
        "es",
        -9.402612686157228
      ],
      [
        "Oklaski",
        -9.404136657714844
      ],
      [
        "▁2000",
        -9.404480934143066
      ],
      [
        "▁góry",
        -9.404633522033691
      ],
      [
        "▁całego",
        -9.404969215393066
      ],
      [
        "▁kosztów",
        -9.40664291381836
      ],
      [
        "▁tytułu",
        -9.407798767089844
      ],
      [
        "▁każdego",
        -9.407980918884276
      ],
      [
        "▁Chodzi",
        -9.40966510772705
      ],
      [
        "▁ojca",
        -9.410228729248049
      ],
      [
        "▁and",
        -9.412033081054688
      ],
      [
        "▁potrzeby",
        -9.41414737701416
      ],
      [
        "▁2006",
        -9.414899826049805
      ],
      [
        "▁kobiet",
        -9.415876388549805
      ],
      [
        "▁skoro",
        -9.416250228881836
      ],
      [
        "▁miałem",
        -9.416324615478516
      ],
      [
        "▁mowa",
        -9.416583061218262
      ],
      [
        "on",
        -9.41738224029541
      ],
      [
        "▁usług",
        -9.418335914611816
      ],
      [
        "▁całym",
        -9.420228004455566
      ],
      [
        "▁Poseł",
        -9.42109203338623
      ],
      [
        "I",
        -9.421282768249512
      ],
      [
        "▁pewnie",
        -9.426355361938477
      ],
      [
        "U",
        -9.429943084716797
      ],
      [
        "emu",
        -9.433001518249512
      ],
      [
        "nym",
        -9.434577941894531
      ],
      [
        "▁mocy",
        -9.434924125671388
      ],
      [
        "▁Przecież",
        -9.435321807861328
      ],
      [
        "▁jednostek",
        -9.436164855957031
      ],
      [
        "▁pośle",
        -9.436657905578612
      ],
      [
        "▁linii",
        -9.439306259155272
      ],
      [
        "▁szkół",
        -9.439716339111328
      ],
      [
        "▁rozumiem",
        -9.440266609191896
      ],
      [
        "▁Jej",
        -9.440960884094238
      ],
      [
        "▁świadczeń",
        -9.441439628601074
      ],
      [
        "▁województwa",
        -9.441771507263184
      ],
      [
        "▁stopniu",
        -9.44258975982666
      ],
      [
        "▁współpracy",
        -9.444812774658203
      ],
      [
        "▁liczba",
        -9.446192741394045
      ],
      [
        "x",
        -9.447839736938477
      ],
      [
        "▁Stwierdzam",
        -9.450912475585938
      ],
      [
        "▁3.",
        -9.452364921569824
      ],
      [
        "▁całkowicie",
        -9.453702926635742
      ],
      [
        "Z",
        -9.457008361816406
      ],
      [
        "▁2016",
        -9.457962989807127
      ],
      [
        "▁Francji",
        -9.460323333740234
      ],
      [
        "owanie",
        -9.460817337036133
      ],
      [
        "E",
        -9.461505889892578
      ],
      [
        "▁wypadku",
        -9.464428901672363
      ],
      [
        "▁dane",
        -9.464824676513672
      ],
      [
        "▁c",
        -9.46576976776123
      ],
      [
        "▁robi",
        -9.467283248901367
      ],
      [
        "▁zwrócić",
        -9.469149589538574
      ],
      [
        "▁polski",
        -9.469205856323242
      ],
      [
        "4",
        -9.470983505249023
      ],
      [
        "▁dodał",
        -9.471299171447754
      ],
      [
        "▁pierwszego",
        -9.471976280212402
      ],
      [
        "▁Niech",
        -9.472356796264648
      ],
      [
        "▁projekcie",
        -9.472821235656738
      ],
      [
        "▁kwestia",
        -9.476659774780272
      ],
      [
        "▁50",
        -9.476950645446776
      ],
      [
        "▁sprawach",
        -9.477447509765623
      ],
      [
        "▁Ty",
        -9.47889232635498
      ],
      [
        "▁wymaga",
        -9.47926425933838
      ],
      [
        "▁dobre",
        -9.479968070983888
      ],
      [
        "▁Ministra",
        -9.48094367980957
      ],
      [
        "▁sił",
        -9.481831550598145
      ],
      [
        "re",
        -9.481854438781738
      ],
      [
        "▁Szanowny",
        -9.482100486755373
      ],
      [
        "ona",
        -9.482651710510254
      ],
      [
        "▁pełni",
        -9.483490943908691
      ],
      [
        "▁muszę",
        -9.484179496765137
      ],
      [
        "▁akcji",
        -9.484262466430664
      ],
      [
        "▁rozporządzenia",
        -9.484999656677246
      ],
      [
        "▁gdzieś",
        -9.48680019378662
      ],
      [
        "▁Dobrze",
        -9.489046096801758
      ],
      [
        "▁Nr",
        -9.48929500579834
      ],
      [
        "▁Wszystko",
        -9.489927291870115
      ],
      [
        "R",
        -9.489962577819824
      ],
      [
        "▁2015",
        -9.490837097167969
      ],
      [
        "▁parę",
        -9.49231243133545
      ],
      [
        "▁pewnością",
        -9.49375820159912
      ],
      [
        "▁pory",
        -9.494215965270996
      ],
      [
        "▁pomocą",
        -9.49569320678711
      ],
      [
        "▁mojego",
        -9.49635887145996
      ],
      [
        "▁drogę",
        -9.497232437133787
      ],
      [
        "▁kobieta",
        -9.49759292602539
      ],
      [
        "▁przyjęcie",
        -9.49847412109375
      ],
      [
        "ow",
        -9.49862575531006
      ],
      [
        "▁stwierdził",
        -9.498879432678224
      ],
      [
        "▁Trzeba",
        -9.49953556060791
      ],
      [
        "▁wzrost",
        -9.49975872039795
      ],
      [
        "▁nowy",
        -9.500438690185549
      ],
      [
        "▁kultury",
        -9.501347541809082
      ],
      [
        "▁św",
        -9.502522468566896
      ],
      [
        "▁rolę",
        -9.503101348876951
      ],
      [
        "▁tymi",
        -9.504392623901367
      ],
      [
        "▁drugim",
        -9.507637977600098
      ],
      [
        "▁osoba",
        -9.508475303649902
      ],
      [
        "T",
        -9.509248733520508
      ],
      [
        "▁panią",
        -9.509644508361816
      ],
      [
        "▁żołnierzy",
        -9.510705947875977
      ],
      [
        "▁większości",
        -9.511457443237305
      ],
      [
        "▁proces",
        -9.511703491210938
      ],
      [
        "▁Skarbu",
        -9.51179027557373
      ],
      [
        "▁pozycji",
        -9.511792182922363
      ],
      [
        "▁bym",
        -9.513736724853516
      ],
      [
        "▁Polskiego",
        -9.513815879821776
      ],
      [
        "bym",
        -9.515071868896484
      ],
      [
        "▁godziny",
        -9.515239715576172
      ],
      [
        "▁decyzję",
        -9.51546573638916
      ],
      [
        "▁Ze",
        -9.516480445861816
      ],
      [
        "▁musimy",
        -9.516942977905272
      ],
      [
        "▁ważne",
        -9.517413139343262
      ],
      [
        "▁Więc",
        -9.517671585083008
      ],
      [
        "▁Chcę",
        -9.519147872924805
      ],
      [
        "▁znaczenie",
        -9.519732475280762
      ],
      [
        "▁spółki",
        -9.519891738891602
      ],
      [
        "▁inwestycji",
        -9.520345687866213
      ],
      [
        "▁słów",
        -9.520570755004885
      ],
      [
        "▁N",
        -9.521451950073242
      ],
      [
        "▁warunków",
        -9.52164363861084
      ],
      [
        "▁wiedzieć",
        -9.521980285644531
      ],
      [
        "▁daleko",
        -9.522067070007324
      ],
      [
        "▁instytucji",
        -9.522268295288086
      ],
      [
        "▁godzin",
        -9.522302627563477
      ],
      [
        "co",
        -9.522321701049805
      ],
      [
        "▁wieś",
        -9.525522232055664
      ],
      [
        "▁zamiast",
        -9.526308059692385
      ],
      [
        "▁warunki",
        -9.52655792236328
      ],
      [
        "▁daje",
        -9.52717113494873
      ],
      [
        "▁Przed",
        -9.527454376220703
      ],
      [
        "▁żadnej",
        -9.527732849121094
      ],
      [
        "owania",
        -9.528708457946776
      ],
      [
        "us",
        -9.52939510345459
      ],
      [
        "▁cel",
        -9.529413223266602
      ],
      [
        "▁duże",
        -9.529579162597656
      ],
      [
        "▁walki",
        -9.530308723449709
      ],
      [
        "ing",
        -9.53149700164795
      ],
      [
        "▁drugiego",
        -9.531743049621582
      ],
      [
        "ował",
        -9.533059120178224
      ],
      [
        "▁Sam",
        -9.53451156616211
      ],
      [
        "▁koszty",
        -9.535043716430664
      ],
      [
        "▁podobnie",
        -9.535258293151855
      ],
      [
        "▁dobry",
        -9.537036895751951
      ],
      [
        "▁wolno",
        -9.53882884979248
      ],
      [
        "▁Otóż",
        -9.53960418701172
      ],
      [
        "▁Zdrowia",
        -9.539984703063965
      ],
      [
        "▁pięć",
        -9.540224075317385
      ],
      [
        "▁publicznej",
        -9.542461395263672
      ],
      [
        "▁powierzchni",
        -9.542698860168455
      ],
      [
        "▁Przystępujemy",
        -9.542767524719238
      ],
      [
        "▁/",
        -9.54551601409912
      ],
      [
        "▁państw",
        -9.545598983764648
      ],
      [
        "▁każdej",
        -9.546566009521484
      ],
      [
        "▁badań",
        -9.546772003173828
      ],
      [
        "▁...",
        -9.548049926757812
      ],
      [
        "▁firmy",
        -9.550251960754396
      ],
      [
        "ń",
        -9.550705909729004
      ],
      [
        "▁samorządu",
        -9.55071258544922
      ],
      [
        "▁Finansów",
        -9.550725936889648
      ],
      [
        "▁wygląda",
        -9.553622245788574
      ],
      [
        "▁stąd",
        -9.556085586547852
      ],
      [
        "▁Funduszu",
        -9.556385040283203
      ],
      [
        "▁czegoś",
        -9.557065963745115
      ],
      [
        "▁niczego",
        -9.558646202087402
      ],
      [
        "▁problemy",
        -9.55921459197998
      ],
      [
        "J",
        -9.560066223144531
      ],
      [
        "▁2005",
        -9.560847282409668
      ],
      [
        "0",
        -9.561224937438965
      ],
      [
        "▁zwykle",
        -9.561495780944824
      ],
      [
        "▁badania",
        -9.563760757446287
      ],
      [
        "▁byłem",
        -9.56436824798584
      ],
      [
        "je",
        -9.56541347503662
      ],
      [
        "▁spojrzał",
        -9.565953254699709
      ],
      [
        "▁doszło",
        -9.56611156463623
      ],
      [
        "▁Podczas",
        -9.566420555114746
      ],
      [
        "▁wpływ",
        -9.567946434020996
      ],
      [
        "▁2001",
        -9.568655967712402
      ],
      [
        "▁My",
        -9.568903923034668
      ],
      [
        "▁Ministrze",
        -9.569527626037598
      ],
      [
        "▁czynności",
        -9.5697603225708
      ],
      [
        "▁wiesz",
        -9.570429801940918
      ],
      [
        "▁braku",
        -9.5704927444458
      ],
      [
        "▁senator",
        -9.57204818725586
      ],
      [
        "5",
        -9.572150230407717
      ],
      [
        "▁nasz",
        -9.573015213012695
      ],
      [
        "▁posiedzenia",
        -9.573492050170898
      ],
      [
        "▁okazji",
        -9.573966979980469
      ],
      [
        "▁mieście",
        -9.574056625366213
      ],
      [
        "▁zasad",
        -9.574285507202148
      ],
      [
        "▁powiecie",
        -9.574557304382324
      ],
      [
        "▁Wszyscy",
        -9.574902534484863
      ],
      [
        "▁§",
        -9.57588005065918
      ],
      [
        "▁swych",
        -9.575916290283203
      ],
      [
        "▁PiS",
        -9.576032638549805
      ],
      [
        "▁posiada",
        -9.57677173614502
      ],
      [
        "▁ciało",
        -9.576789855957031
      ],
      [
        "▁myślę",
        -9.57683277130127
      ],
      [
        "▁najpierw",
        -9.578822135925291
      ],
      [
        "▁sytuację",
        -9.579529762268066
      ],
      [
        "▁wydatków",
        -9.579998016357422
      ],
      [
        "▁prowadzi",
        -9.582833290100098
      ],
      [
        "▁Ponieważ",
        -9.582964897155762
      ],
      [
        "▁Można",
        -9.584637641906738
      ],
      [
        "▁Należy",
        -9.58488941192627
      ],
      [
        "▁odpowiedział",
        -9.585341453552246
      ],
      [
        "▁:",
        -9.585948944091797
      ],
      [
        "▁Mimo",
        -9.586102485656738
      ],
      [
        "ości",
        -9.58811855316162
      ],
      [
        "▁40",
        -9.58899211883545
      ],
      [
        "ski",
        -9.589006423950195
      ],
      [
        "jąc",
        -9.589733123779297
      ],
      [
        "▁formie",
        -9.590327262878418
      ],
      [
        "▁działa",
        -9.590376853942873
      ],
      [
        "▁posiedzenie",
        -9.590720176696776
      ],
      [
        "▁stała",
        -9.59155559539795
      ],
      [
        "а",
        -9.592228889465332
      ],
      [
        "▁obywateli",
        -9.592367172241213
      ],
      [
        "▁~",
        -9.592538833618164
      ],
      [
        "▁SA",
        -9.592735290527344
      ],
      [
        "▁Mamy",
        -9.595711708068848
      ],
      [
        "▁wynosi",
        -9.595812797546388
      ],
      [
        "▁zaczęła",
        -9.597641944885254
      ],
      [
        "▁Wtedy",
        -9.598068237304688
      ],
      [
        "▁zostaną",
        -9.598991394042969
      ],
      [
        "▁znalazł",
        -9.59936809539795
      ],
      [
        "▁dobra",
        -9.599736213684082
      ],
      [
        "▁nowej",
        -9.600238800048828
      ],
      [
        "▁moich",
        -9.60176944732666
      ],
      [
        "▁kogoś",
        -9.601816177368164
      ],
      [
        "▁2003",
        -9.60183048248291
      ],
      [
        "▁Obecnie",
        -9.602004051208496
      ],
      [
        "▁sieci",
        -9.610612869262695
      ],
      [
        "▁spytał",
        -9.613487243652344
      ],
      [
        "▁Tam",
        -9.613524436950684
      ],
      [
        "▁kolejne",
        -9.61455249786377
      ],
      [
        "▁broni",
        -9.61709213256836
      ],
      [
        "▁wstrzymał",
        -9.617132186889648
      ],
      [
        "▁śmierć",
        -9.621123313903809
      ],
      [
        "▁mężczyzn",
        -9.621649742126465
      ],
      [
        "▁UE",
        -9.621849060058594
      ],
      [
        "▁proc",
        -9.622320175170898
      ],
      [
        "://",
        -9.622724533081056
      ],
      [
        "▁Tym",
        -9.623409271240234
      ],
      [
        "▁ono",
        -9.625812530517578
      ],
      [
        "▁rozwiązanie",
        -9.625897407531738
      ],
      [
        "ują",
        -9.626699447631836
      ],
      [
        "▁mężczyzna",
        -9.626922607421877
      ],
      [
        "▁•",
        -9.62765121459961
      ],
      [
        "enia",
        -9.628667831420898
      ],
      [
        "sa",
        -9.628979682922363
      ],
      [
        "▁moją",
        -9.629862785339355
      ],
      [
        "▁0",
        -9.630053520202637
      ],
      [
        "▁Boga",
        -9.63053035736084
      ],
      [
        "▁Nigdy",
        -9.630548477172852
      ],
      [
        "▁wam",
        -9.634573936462402
      ],
      [
        "▁Chyba",
        -9.63509464263916
      ],
      [
        "▁Zjednoczonych",
        -9.635404586791992
      ],
      [
        "▁otrzymał",
        -9.637103080749512
      ],
      [
        "▁rady",
        -9.637528419494627
      ],
      [
        "▁finansowych",
        -9.637561798095703
      ],
      [
        "▁Jakie",
        -9.638049125671388
      ],
      [
        "▁itd",
        -9.638129234313965
      ],
      [
        "▁niech",
        -9.638327598571776
      ],
      [
        "▁powoli",
        -9.638347625732422
      ],
      [
        "▁mówię",
        -9.63898754119873
      ],
      [
        "▁energii",
        -9.640690803527832
      ],
      [
        "▁Nikt",
        -9.640985488891602
      ],
      [
        "ście",
        -9.642305374145508
      ],
      [
        "~",
        -9.642497062683104
      ],
      [
        "▁br",
        -9.642956733703612
      ],
      [
        "▁Rosji",
        -9.643915176391602
      ],
      [
        "▁ustawą",
        -9.644331932067873
      ],
      [
        "▁prezydent",
        -9.644436836242676
      ],
      [
        "▁wielkie",
        -9.644888877868652
      ],
      [
        "▁Wydaje",
        -9.647137641906738
      ],
      [
        "kami",
        -9.6477689743042
      ],
      [
        "▁poziom",
        -9.648309707641602
      ],
      [
        "▁poprawkę",
        -9.649322509765623
      ],
      [
        "▁chcą",
        -9.649920463562012
      ],
      [
        "▁przyszłości",
        -9.6499662399292
      ],
      [
        "▁mogły",
        -9.650843620300291
      ],
      [
        "▁budowy",
        -9.651180267333984
      ],
      [
        "▁widział",
        -9.651439666748049
      ],
      [
        "▁wypowiedzi",
        -9.65221881866455
      ],
      [
        "niem",
        -9.652725219726562
      ],
      [
        "▁blisko",
        -9.65281867980957
      ],
      [
        "▁Poza",
        -9.65445327758789
      ],
      [
        "▁głosów",
        -9.654523849487305
      ],
      [
        "▁finansów",
        -9.654558181762695
      ],
      [
        "▁Narodowej",
        -9.658731460571287
      ],
      [
        "▁problemów",
        -9.659351348876951
      ],
      [
        "▁same",
        -9.660323143005373
      ],
      [
        "▁Było",
        -9.660459518432615
      ],
      [
        "▁prawnych",
        -9.660587310791016
      ],
      [
        "▁celem",
        -9.662388801574709
      ],
      [
        "▁systemie",
        -9.662464141845703
      ],
      [
        "▁gmin",
        -9.663796424865724
      ],
      [
        "▁zakresu",
        -9.664217948913574
      ],
      [
        "▁Sejmie",
        -9.664669036865234
      ],
      [
        "▁możesz",
        -9.664956092834473
      ],
      [
        "▁poprawek",
        -9.6651611328125
      ],
      [
        "▁obowiązek",
        -9.668349266052246
      ],
      [
        "▁mógłby",
        -9.670124053955078
      ],
      [
        "▁jakiegoś",
        -9.670775413513184
      ],
      [
        "▁ludności",
        -9.671006202697754
      ],
      [
        "▁górę",
        -9.672369003295898
      ],
      [
        "▁dać",
        -9.673723220825195
      ],
      [
        "▁Rozumiem",
        -9.675552368164062
      ],
      [
        "▁wolności",
        -9.676109313964844
      ],
      [
        "cz",
        -9.676438331604004
      ],
      [
        "▁niestety",
        -9.677008628845217
      ],
      [
        "▁chcesz",
        -9.678207397460938
      ],
      [
        "▁partii",
        -9.679359436035156
      ],
      [
        "▁matka",
        -9.679557800292969
      ],
      [
        "▁Wiem",
        -9.679712295532228
      ],
      [
        "▁zespołu",
        -9.680298805236816
      ],
      [
        "▁warunkach",
        -9.680371284484863
      ],
      [
        "▁cała",
        -9.680997848510742
      ],
      [
        "▁przyjęciem",
        -9.681047439575195
      ],
      [
        "▁pewnym",
        -9.68153476715088
      ],
      [
        "▁prezesa",
        -9.68233585357666
      ],
      [
        "▁Jako",
        -9.682622909545898
      ],
      [
        "▁kwoty",
        -9.68276023864746
      ],
      [
        "▁przedmiotem",
        -9.682808876037598
      ],
      [
        "▁problemu",
        -9.682987213134766
      ],
      [
        "▁zabrać",
        -9.684292793273926
      ],
      [
        "v",
        -9.684688568115234
      ],
      [
        "▁treści",
        -9.68484592437744
      ],
      [
        "▁2002",
        -9.68630027770996
      ],
      [
        "▁oczach",
        -9.68756103515625
      ],
      [
        "▁bezpośrednio",
        -9.688132286071776
      ],
      [
        "▁inni",
        -9.688170433044434
      ],
      [
        "▁imię",
        -9.688499450683594
      ],
      [
        "▁zmiana",
        -9.690244674682615
      ],
      [
        "▁plan",
        -9.69219207763672
      ],
      [
        "te",
        -9.693199157714844
      ],
      [
        "▁nogi",
        -9.693260192871094
      ],
      [
        "▁rozmowy",
        -9.693685531616213
      ],
      [
        "▁tj",
        -9.693960189819336
      ],
      [
        "▁nauki",
        -9.69467830657959
      ],
      [
        "▁Jana",
        -9.694692611694336
      ],
      [
        "▁ha",
        -9.69533920288086
      ],
      [
        "▁własne",
        -9.695358276367188
      ],
      [
        "▁ciągle",
        -9.6962890625
      ],
      [
        "▁króla",
        -9.69699764251709
      ],
      [
        "czy",
        -9.698262214660645
      ],
      [
        "▁krwi",
        -9.698616981506348
      ],
      [
        "▁pytań",
        -9.699403762817385
      ],
      [
        "6",
        -9.699566841125488
      ],
      [
        "▁dziękuję",
        -9.701423645019531
      ],
      [
        "*",
        -9.702574729919434
      ],
      [
        "▁całkiem",
        -9.703831672668455
      ],
      [
        "▁mld",
        -9.70584201812744
      ],
      [
        "▁Andrzej",
        -9.705855369567873
      ],
      [
        "▁syn",
        -9.707544326782228
      ],
      [
        "is",
        -9.708141326904297
      ],
      [
        "▁zasadzie",
        -9.70820140838623
      ],
      [
        "▁Roz",
        -9.70885944366455
      ],
      [
        "▁krajów",
        -9.709219932556152
      ],
      [
        "▁rozwój",
        -9.709238052368164
      ],
      [
        "▁społecznych",
        -9.709270477294922
      ],
      [
        "▁powiem",
        -9.710922241210938
      ],
      [
        "▁ob",
        -9.710941314697266
      ],
      [
        "▁metrów",
        -9.711338996887209
      ],
      [
        "▁woli",
        -9.712607383728027
      ],
      [
        "▁ulicy",
        -9.712703704833984
      ],
      [
        "▁wnioski",
        -9.712730407714844
      ],
      [
        "▁Polaków",
        -9.712904930114746
      ],
      [
        "▁poważaniem",
        -9.71294403076172
      ],
      [
        "▁jakoś",
        -9.71359634399414
      ],
      [
        "bo",
        -9.713787078857422
      ],
      [
        "▁obraz",
        -9.714077949523926
      ],
      [
        "▁2018",
        -9.716732025146484
      ],
      [
        "▁prezes",
        -9.717333793640137
      ],
      [
        "▁jakąś",
        -9.71818733215332
      ],
      [
        "▁Bóg",
        -9.718323707580566
      ],
      [
        "▁światowej",
        -9.718688011169434
      ],
      [
        "łem",
        -9.718990325927734
      ],
      [
        "▁żaden",
        -9.71904754638672
      ],
      [
        "▁źle",
        -9.719130516052246
      ],
      [
        "▁prawdopodobnie",
        -9.720396995544434
      ],
      [
        "de",
        -9.720721244812012
      ],
      [
        "▁złotych",
        -9.721064567565918
      ],
      [
        "▁zrobił",
        -9.72141456604004
      ],
      [
        "▁sprawiedliwości",
        -9.72244644165039
      ],
      [
        "▁województwie",
        -9.724181175231934
      ],
      [
        "▁noc",
        -9.7245454788208
      ],
      [
        "▁#",
        -9.72764015197754
      ],
      [
        "▁stać",
        -9.727810859680176
      ],
      [
        "▁wniosków",
        -9.728607177734377
      ],
      [
        "▁Pracy",
        -9.72869873046875
      ],
      [
        "▁ruch",
        -9.729351043701172
      ],
      [
        "▁klubu",
        -9.731294631958008
      ],
      [
        "▁mogło",
        -9.73129653930664
      ],
      [
        "▁ustawę",
        -9.73240566253662
      ],
      [
        "▁wiedzy",
        -9.732641220092772
      ],
      [
        "▁idzie",
        -9.73268222808838
      ],
      [
        "▁społeczeństwa",
        -9.73381805419922
      ],
      [
        "▁szczególności",
        -9.734037399291992
      ],
      [
        "▁punkt",
        -9.73465347290039
      ],
      [
        "▁miejsc",
        -9.734668731689451
      ],
      [
        "ed",
        -9.735518455505373
      ],
      [
        "▁panów",
        -9.73569393157959
      ],
      [
        "▁równie",
        -9.736373901367188
      ],
      [
        "▁Bez",
        -9.737945556640623
      ],
      [
        "▁funkcjonowania",
        -9.739187240600586
      ],
      [
        "9",
        -9.743260383605955
      ],
      [
        "▁powiedziałem",
        -9.74354076385498
      ],
      [
        "▁Niestety",
        -9.744275093078612
      ],
      [
        "▁La",
        -9.745823860168455
      ],
      [
        "▁g",
        -9.745979309082031
      ],
      [
        "▁ww",
        -9.747353553771973
      ],
      [
        "▁słowo",
        -9.748046875
      ],
      [
        "▁dół",
        -9.74912452697754
      ],
      [
        "▁szczęście",
        -9.749737739562988
      ],
      [
        "▁przedstawiciel",
        -9.750739097595217
      ],
      [
        "▁>",
        -9.750760078430176
      ],
      [
        "▁PO",
        -9.751916885375977
      ],
      [
        "▁powrotem",
        -9.752762794494627
      ],
      [
        "▁przepis",
        -9.753893852233888
      ],
      [
        "▁wiemy",
        -9.755742073059082
      ],
      [
        "▁sądu",
        -9.75698184967041
      ],
      [
        "▁nami",
        -9.75723648071289
      ],
      [
        "▁przedstawicieli",
        -9.757963180541992
      ],
      [
        "▁j",
        -9.75807762145996
      ],
      [
        "▁innej",
        -9.758347511291504
      ],
      [
        "▁gmina",
        -9.758383750915527
      ],
      [
        "▁polega",
        -9.758466720581056
      ],
      [
        "▁stron",
        -9.758785247802734
      ],
      [
        "▁spokojnie",
        -9.760123252868652
      ],
      [
        "▁zauważył",
        -9.760452270507812
      ],
      [
        "▁ostatni",
        -9.76094913482666
      ],
      [
        "▁słyszę",
        -9.761871337890623
      ],
      [
        "▁którymi",
        -9.762475967407228
      ],
      [
        "▁skąd",
        -9.762744903564451
      ],
      [
        "wa",
        -9.76320457458496
      ],
      [
        "▁czterech",
        -9.76357364654541
      ],
      [
        "▁Zapytanie",
        -9.764249801635742
      ],
      [
        "▁głowie",
        -9.765191078186035
      ],
      [
        "▁sami",
        -9.76564884185791
      ],
      [
        "ra",
        -9.767505645751951
      ],
      [
        "▁charakterze",
        -9.767864227294922
      ],
      [
        "▁będziesz",
        -9.768389701843262
      ],
      [
        "▁następujące",
        -9.768747329711914
      ],
      [
        "▁premier",
        -9.77104663848877
      ],
      [
        "▁warto",
        -9.771430015563965
      ],
      [
        "▁drugą",
        -9.77280044555664
      ],
      [
        "▁projektów",
        -9.773233413696287
      ],
      [
        "▁uważa",
        -9.773480415344238
      ],
      [
        "ma",
        -9.773693084716797
      ],
      [
        "▁Sprawiedliwości",
        -9.775205612182615
      ],
      [
        "▁wprost",
        -9.77525234222412
      ],
      [
        "▁mniejszości",
        -9.775267601013184
      ],
      [
        "▁własnych",
        -9.775471687316896
      ],
      [
        "▁Europie",
        -9.776012420654297
      ],
      [
        "enie",
        -9.776226043701172
      ],
      [
        "▁Wszystkie",
        -9.777024269104004
      ],
      [
        "▁wielki",
        -9.777259826660156
      ],
      [
        "▁połowie",
        -9.778131484985352
      ],
      [
        "▁całości",
        -9.779394149780272
      ],
      [
        "▁1999",
        -9.780027389526367
      ],
      [
        "▁głosem",
        -9.780386924743652
      ],
      [
        "▁xD",
        -9.780418395996094
      ],
      [
        "▁koło",
        -9.780985832214355
      ],
      [
        "▁Jednocześnie",
        -9.78105640411377
      ],
      [
        "▁propozycji",
        -9.78129768371582
      ],
      [
        "▁oceny",
        -9.782440185546877
      ],
      [
        "G",
        -9.78301239013672
      ],
      [
        "▁polskie",
        -9.78380012512207
      ],
      [
        "al",
        -9.78392219543457
      ],
      [
        "▁czynienia",
        -9.785155296325684
      ],
      [
        "—",
        -9.78561782836914
      ],
      [
        "▁obrony",
        -9.785784721374512
      ],
      [
        "▁jakimś",
        -9.78691291809082
      ],
      [
        "▁swe",
        -9.789762496948242
      ],
      [
        "▁zapis",
        -9.78993320465088
      ],
      [
        "7",
        -9.793606758117676
      ],
      [
        "▁terytorialnego",
        -9.793703079223633
      ],
      [
        "▁uda",
        -9.793838500976562
      ],
      [
        "▁ręką",
        -9.793954849243164
      ],
      [
        "▁Następnie",
        -9.795056343078612
      ],
      [
        "ry",
        -9.79514503479004
      ],
      [
        "▁informuję",
        -9.795382499694824
      ],
      [
        "▁zespół",
        -9.795412063598633
      ],
      [
        "Nie",
        -9.796083450317385
      ],
      [
        "▁rano",
        -9.796472549438477
      ],
      [
        "▁gry",
        -9.796780586242676
      ],
      [
        "▁ostatnie",
        -9.79680633544922
      ],
      [
        "zie",
        -9.797069549560549
      ],
      [
        "▁spotkania",
        -9.79910945892334
      ],
      [
        "▁list",
        -9.800597190856934
      ],
      [
        "▁tuż",
        -9.800688743591309
      ],
      [
        "▁ministrze",
        -9.801025390625
      ],
      [
        "▁kolejnych",
        -9.80121612548828
      ],
      [
        "L",
        -9.80148696899414
      ],
      [
        "▁czymś",
        -9.801944732666016
      ],
      [
        "an",
        -9.802931785583496
      ],
      [
        "▁1997",
        -9.803336143493652
      ],
      [
        "▁gminie",
        -9.803467750549316
      ],
      [
        "▁wzrok",
        -9.80413818359375
      ],
      [
        "▁rację",
        -9.804159164428713
      ],
      [
        "▁zależy",
        -9.806201934814451
      ],
      [
        "▁zapewne",
        -9.806437492370604
      ],
      [
        "▁policji",
        -9.807451248168944
      ],
      [
        "▁potrzeb",
        -9.809439659118652
      ],
      [
        "▁dyrektor",
        -9.809942245483398
      ],
      [
        "–",
        -9.811327934265137
      ],
      [
        "▁czasów",
        -9.811567306518556
      ],
      [
        "▁kolejny",
        -9.81233024597168
      ],
      [
        "▁grupa",
        -9.813901901245115
      ],
      [
        "▁pobliżu",
        -9.815143585205078
      ],
      [
        "śmy",
        -9.81586742401123
      ],
      [
        "▁znajdują",
        -9.815893173217772
      ],
      [
        "▁serca",
        -9.816184997558594
      ],
      [
        "▁własnej",
        -9.816194534301758
      ],
      [
        "▁pomyślał",
        -9.816555976867676
      ],
      [
        "▁zobaczyć",
        -9.816901206970217
      ],
      [
        "▁Narodowego",
        -9.817655563354492
      ],
      [
        "▁x",
        -9.821017265319824
      ],
      [
        "▁obszarze",
        -9.822843551635742
      ],
      [
        "▁dotychczas",
        -9.823504447937012
      ],
      [
        "▁znak",
        -9.824823379516602
      ],
      [
        "▁sprzedaży",
        -9.826078414916992
      ],
      [
        "▁pierwszych",
        -9.826383590698242
      ],
      [
        "▁Marszałek",
        -9.82659149169922
      ],
      [
        "▁cicho",
        -9.82659912109375
      ],
      [
        "▁realizację",
        -9.82668685913086
      ],
      [
        "▁niektóre",
        -9.826906204223633
      ],
      [
        "że",
        -9.82819652557373
      ],
      [
        "owali",
        -9.828584671020508
      ],
      [
        "▁rozwiązań",
        -9.829891204833984
      ],
      [
        "▁miejscowość",
        -9.83141803741455
      ],
      [
        "H",
        -9.831708908081056
      ],
      [
        "▁choćby",
        -9.833160400390623
      ],
      [
        "8",
        -9.833319664001465
      ],
      [
        "▁ziemię",
        -9.833982467651367
      ],
      [
        "▁widok",
        -9.83403491973877
      ],
      [
        "▁krajach",
        -9.834717750549316
      ],
      [
        "▁tytuł",
        -9.834943771362305
      ],
      [
        "▁chciała",
        -9.835145950317385
      ],
      [
        "▁podkreślić",
        -9.835561752319336
      ],
      [
        "▁przewiduje",
        -9.835741996765137
      ],
      [
        "▁prowadzenia",
        -9.83626651763916
      ],
      [
        "▁zmianę",
        -9.83662223815918
      ],
      [
        "▁Miał",
        -9.837657928466797
      ],
      [
        "▁uważam",
        -9.838014602661133
      ],
      [
        "▁centrum",
        -9.838242530822754
      ],
      [
        "▁uchwały",
        -9.83867645263672
      ],
      [
        "▁rzeczywistości",
        -9.839253425598145
      ],
      [
        "▁procesu",
        -9.840895652770996
      ],
      [
        "▁pewnego",
        -9.842242240905762
      ],
      [
        "▁Rozwoju",
        -9.842798233032228
      ],
      [
        "▁nowo",
        -9.843561172485352
      ],
      [
        "▁Dzięki",
        -9.844352722167969
      ],
      [
        "ii",
        -9.844388961791992
      ],
      [
        "▁stary",
        -9.846635818481444
      ],
      [
        "▁zapytać",
        -9.846673965454102
      ],
      [
        "▁Lecz",
        -9.846911430358888
      ],
      [
        "▁polskim",
        -9.84701919555664
      ],
      [
        "▁wzrostu",
        -9.847222328186035
      ],
      [
        "▁pojęcia",
        -9.847545623779297
      ],
      [
        "▁premiera",
        -9.847575187683104
      ],
      [
        "▁włosy",
        -9.847655296325684
      ],
      [
        "▁wręcz",
        -9.848296165466309
      ],
      [
        "▁wydatki",
        -9.848506927490234
      ],
      [
        "▁De",
        -9.849051475524902
      ],
      [
        "▁kwotę",
        -9.850122451782228
      ],
      [
        "el",
        -9.850349426269531
      ],
      [
        "▁wszelkie",
        -9.850619316101074
      ],
      [
        "▁poprawka",
        -9.851123809814451
      ],
      [
        "▁wyboru",
        -9.852065086364746
      ],
      [
        "▁ręki",
        -9.85211944580078
      ],
      [
        "▁stoi",
        -9.852356910705566
      ],
      [
        "▁państwu",
        -9.8539400100708
      ],
      [
        "▁wprowadzenie",
        -9.85713005065918
      ],
      [
        "▁zdanie",
        -9.859200477600098
      ],
      [
        "▁zatrudnienia",
        -9.859308242797852
      ],
      [
        "▁dał",
        -9.859404563903809
      ],
      [
        "▁swą",
        -9.860448837280272
      ],
      [
        "man",
        -9.862160682678224
      ],
      [
        "▁informację",
        -9.86230754852295
      ],
      [
        "▁sąd",
        -9.86258316040039
      ],
      [
        "▁jakaś",
        -9.863237380981444
      ],
      [
        "▁rodziców",
        -9.863869667053224
      ],
      [
        "▁planu",
        -9.866722106933594
      ],
      [
        "▁matki",
        -9.867083549499512
      ],
      [
        "▁powinniśmy",
        -9.867674827575684
      ],
      [
        "▁król",
        -9.868077278137209
      ],
      [
        "▁udziału",
        -9.868331909179688
      ],
      [
        "▁spotkanie",
        -9.868868827819824
      ],
      [
        "▁gospodarczej",
        -9.869648933410645
      ],
      [
        "▁prawem",
        -9.871142387390137
      ],
      [
        "▁We",
        -9.871851921081545
      ],
      [
        "▁Boże",
        -9.872980117797852
      ],
      [
        "▁wielką",
        -9.873106002807615
      ],
      [
        "▁1998",
        -9.873483657836914
      ],
      [
        "▁Rząd",
        -9.873624801635742
      ],
      [
        "▁proponuje",
        -9.874953269958496
      ],
      [
        "▁miejscowości",
        -9.876058578491213
      ],
      [
        "▁podkomisji",
        -9.87645149230957
      ],
      [
        "▁X",
        -9.876508712768556
      ],
      [
        "▁małe",
        -9.877233505249023
      ],
      [
        "▁łatwo",
        -9.87813663482666
      ],
      [
        "▁Tego",
        -9.878918647766112
      ],
      [
        "▁zawiera",
        -9.879055976867676
      ],
      [
        "▁większe",
        -9.879444122314451
      ],
      [
        "▁świadczenia",
        -9.880484580993652
      ],
      [
        "anie",
        -9.880508422851562
      ],
      [
        "▁nikogo",
        -9.880517959594728
      ],
      [
        "▁4.",
        -9.88091278076172
      ],
      [
        "▁zadanie",
        -9.882944107055664
      ],
      [
        "▁odniesieniu",
        -9.884180068969728
      ],
      [
        "▁Policji",
        -9.884193420410156
      ],
      [
        "▁obrad",
        -9.884444236755373
      ],
      [
        "▁przyjął",
        -9.884541511535645
      ],
      [
        "▁lekko",
        -9.884689331054688
      ],
      [
        "▁łącznie",
        -9.88473129272461
      ],
      [
        "▁okresu",
        -9.886385917663574
      ],
      [
        "▁iść",
        -9.88744831085205
      ],
      [
        "▁drogą",
        -9.888038635253906
      ],
      [
        "▁granicy",
        -9.888911247253418
      ],
      [
        "▁budynku",
        -9.889456748962402
      ],
      [
        "▁posłowie",
        -9.8895263671875
      ],
      [
        "▁narodowej",
        -9.8899564743042
      ],
      [
        "▁syna",
        -9.890022277832031
      ],
      [
        "lo",
        -9.890887260437012
      ],
      [
        "▁wartość",
        -9.89173698425293
      ],
      [
        "▁pewnych",
        -9.89218807220459
      ],
      [
        "▁zaledwie",
        -9.893162727355955
      ],
      [
        "▁rozpatrzenia",
        -9.893744468688965
      ],
      [
        "▁wszystkiego",
        -9.894248008728027
      ],
      [
        "▁Jeden",
        -9.894306182861328
      ],
      [
        "▁przyjęcia",
        -9.894619941711426
      ],
      [
        "▁władze",
        -9.895411491394045
      ],
      [
        "si",
        -9.89732837677002
      ],
      [
        "▁języka",
        -9.897537231445312
      ],
      [
        "▁usta",
        -9.898492813110352
      ],
      [
        "▁stanowią",
        -9.899578094482422
      ],
      [
        "▁dotąd",
        -9.901881217956545
      ],
      [
        "▁przyjąć",
        -9.902276992797852
      ],
      [
        "▁władz",
        -9.90233039855957
      ],
      [
        "▁oczu",
        -9.902698516845703
      ],
      [
        "▁Izby",
        -9.903084754943848
      ],
      [
        "▁niezwykle",
        -9.903995513916016
      ],
      [
        "ro",
        -9.904194831848145
      ],
      [
        "▁dniach",
        -9.904478073120115
      ],
      [
        "▁funkcję",
        -9.906143188476562
      ],
      [
        "▁określone",
        -9.906171798706056
      ],
      [
        "▁cen",
        -9.906255722045898
      ],
      [
        "▁obowiązku",
        -9.90659999847412
      ],
      [
        "ba",
        -9.907631874084473
      ],
      [
        "▁wkrótce",
        -9.90864086151123
      ],
      [
        "da",
        -9.90895652770996
      ],
      [
        "▁funkcji",
        -9.909520149230955
      ],
      [
        "▁zdobył",
        -9.9104642868042
      ],
      [
        "▁występuje",
        -9.910470962524414
      ],
      [
        "▁chcemy",
        -9.910477638244627
      ],
      [
        "▁znaczenia",
        -9.91103458404541
      ],
      [
        "▁roli",
        -9.911697387695312
      ],
      [
        "▁akurat",
        -9.911904335021973
      ],
      [
        "▁pomóc",
        -9.912023544311523
      ],
      [
        "V",
        -9.912158012390137
      ],
      [
        "▁listy",
        -9.912693977355955
      ],
      [
        "▁finansowe",
        -9.91394329071045
      ],
      [
        "▁Gdzie",
        -9.914023399353027
      ],
      [
        "dpowiedzialności",
        -9.91457176208496
      ],
      [
        "▁uwag",
        -9.915170669555664
      ],
      [
        "ując",
        -9.915794372558594
      ],
      [
        "▁zwierząt",
        -9.915794372558594
      ],
      [
        "▁serce",
        -9.916470527648926
      ],
      [
        "▁dróg",
        -9.916494369506836
      ],
      [
        "▁wziął",
        -9.91794204711914
      ],
      [
        "▁droga",
        -9.917996406555176
      ],
      [
        "▁1990",
        -9.91851043701172
      ],
      [
        "▁Być",
        -9.918617248535156
      ],
      [
        "ga",
        -9.920305252075195
      ],
      [
        "▁Takie",
        -9.920417785644531
      ],
      [
        "▁szef",
        -9.920573234558104
      ],
      [
        "one",
        -9.92072582244873
      ],
      [
        "▁druga",
        -9.922529220581056
      ],
      [
        "▁zdrowotnej",
        -9.922677040100098
      ],
      [
        "▁termin",
        -9.923314094543455
      ],
      [
        "▁wojnie",
        -9.924996376037598
      ],
      [
        "▁kadencji",
        -9.925094604492188
      ],
      [
        "▁itp",
        -9.925233840942385
      ],
      [
        "▁Wysoki",
        -9.925440788269045
      ],
      [
        "▁zaczyna",
        -9.925541877746582
      ],
      [
        "▁60",
        -9.925789833068848
      ],
      [
        "▁podmiotów",
        -9.926387786865234
      ],
      [
        "▁najlepiej",
        -9.92681884765625
      ],
      [
        "▁staje",
        -9.92717456817627
      ],
      [
        "▁uczniów",
        -9.927221298217772
      ],
      [
        "▁wyniki",
        -9.92795181274414
      ],
      [
        "▁przedstawić",
        -9.928306579589844
      ],
      [
        "nik",
        -9.928321838378906
      ],
      [
        "▁klasy",
        -9.928613662719728
      ],
      [
        "▁+",
        -9.92921543121338
      ],
      [
        "Ĺ",
        -9.929997444152832
      ],
      [
        "▁Rada",
        -9.930150032043455
      ],
      [
        "ly",
        -9.930663108825684
      ],
      [
        "▁swym",
        -9.930850982666016
      ],
      [
        "▁poziomu",
        -9.931654930114746
      ],
      [
        "ony",
        -9.93200397491455
      ],
      [
        "▁zwrócił",
        -9.932220458984377
      ],
      [
        "▁pierwsza",
        -9.932299613952637
      ],
      [
        "▁Tymczasem",
        -9.932538986206056
      ],
      [
        "▁jakich",
        -9.933216094970703
      ],
      [
        "▁Każdy",
        -9.933938026428224
      ],
      [
        "▁Właśnie",
        -9.93409252166748
      ],
      [
        "▁piśmie",
        -9.934478759765623
      ],
      [
        "▁wrócił",
        -9.935418128967283
      ],
      [
        "zapytanie",
        -9.936172485351562
      ],
      [
        "▁pomysł",
        -9.936716079711914
      ],
      [
        "F",
        -9.93708610534668
      ],
      [
        "▁gra",
        -9.93711757659912
      ],
      [
        "▁budżetowej",
        -9.93712043762207
      ],
      [
        "▁IV",
        -9.938112258911133
      ],
      [
        "▁określonych",
        -9.938142776489258
      ],
      [
        "................",
        -9.93962860107422
      ],
      [
        "▁https",
        -9.939748764038086
      ],
      [
        "▁stały",
        -9.940108299255373
      ],
      [
        "ał",
        -9.940162658691406
      ],
      [
        "▁200",
        -9.941527366638184
      ],
      [
        "▁finansowania",
        -9.943208694458008
      ],
      [
        "▁stopnia",
        -9.943336486816406
      ],
      [
        "com",
        -9.945853233337402
      ],
      [
        "▁środka",
        -9.9459228515625
      ],
      [
        "dy",
        -9.946521759033203
      ],
      [
        "▁milionów",
        -9.94710922241211
      ],
      [
        "skiego",
        -9.94815444946289
      ],
      [
        "▁Niemiec",
        -9.948415756225586
      ],
      [
        "▁ilości",
        -9.948634147644045
      ],
      [
        "▁Uważam",
        -9.948646545410156
      ],
      [
        "▁okazało",
        -9.948707580566406
      ],
      [
        "▁grup",
        -9.948725700378418
      ],
      [
        "▁rolnictwa",
        -9.94998836517334
      ],
      [
        "▁mówią",
        -9.950057983398438
      ],
      [
        "▁mając",
        -9.950688362121582
      ],
      [
        "▁000",
        -9.95124053955078
      ],
      [
        "▁godz",
        -9.951330184936523
      ],
      [
        "▁niewiele",
        -9.953166961669922
      ],
      [
        "▁jakiej",
        -9.953265190124512
      ],
      [
        "▁zostali",
        -9.953706741333008
      ],
      [
        "▁ni",
        -9.953753471374512
      ],
      [
        "▁wojska",
        -9.954270362854004
      ],
      [
        "st",
        -9.954445838928224
      ],
      [
        "▁dłużej",
        -9.954663276672363
      ],
      [
        "▁wiadomości",
        -9.955506324768066
      ],
      [
        "▁opinię",
        -9.95755386352539
      ],
      [
        "▁Ich",
        -9.958913803100586
      ],
      [
        "▁;",
        -9.95927906036377
      ],
      [
        "▁sprawą",
        -9.959794998168944
      ],
      [
        "▁moment",
        -9.961236000061035
      ],
      [
        "▁chwilą",
        -9.961370468139648
      ],
      [
        "▁miast",
        -9.962718963623049
      ],
      [
        "▁zmienić",
        -9.963010787963867
      ],
      [
        "▁dyskusję",
        -9.963501930236816
      ],
      [
        "▁umów",
        -9.964221000671388
      ],
      [
        "or",
        -9.964357376098633
      ],
      [
        "▁re",
        -9.96438217163086
      ],
      [
        "▁32",
        -9.964714050292969
      ],
      [
        "▁projektem",
        -9.965920448303224
      ],
      [
        "▁mówiła",
        -9.966812133789062
      ],
      [
        "▁wsparcia",
        -9.967266082763672
      ],
      [
        "▁przypadkach",
        -9.967284202575684
      ],
      [
        "▁zewnątrz",
        -9.96749782562256
      ],
      [
        "▁sprawozdania",
        -9.96876621246338
      ],
      [
        "▁decyzje",
        -9.969204902648926
      ],
      [
        "▁nauczycieli",
        -9.96963119506836
      ],
      [
        "▁dłoń",
        -9.97019863128662
      ],
      [
        "▁pozostałych",
        -9.97044563293457
      ],
      [
        "▁dom",
        -9.970501899719238
      ],
      [
        "▁kim",
        -9.970582008361816
      ],
      [
        "▁broń",
        -9.971421241760254
      ],
      [
        "▁euro",
        -9.9716215133667
      ],
      [
        "▁cóż",
        -9.97222137451172
      ],
      [
        "▁środku",
        -9.972617149353027
      ],
      [
        "▁światła",
        -9.973111152648926
      ],
      [
        "▁oto",
        -9.973234176635742
      ],
      [
        "▁Dopiero",
        -9.974261283874512
      ],
      [
        "▁kraj",
        -9.974753379821776
      ],
      [
        "▁musiała",
        -9.975285530090332
      ],
      [
        "▁wykonania",
        -9.97555923461914
      ],
      [
        "▁naj",
        -9.97584342956543
      ],
      [
        "▁organów",
        -9.975969314575195
      ],
      [
        "▁sto",
        -9.97624397277832
      ],
      [
        "▁czemu",
        -9.976337432861328
      ],
      [
        "▁ds",
        -9.977130889892578
      ],
      [
        "▁dziedzinie",
        -9.977320671081545
      ],
      [
        "▁odpowiada",
        -9.977409362792969
      ],
      [
        "▁Przepraszam",
        -9.977465629577637
      ],
      [
        "tu",
        -9.977468490600586
      ],
      [
        "▁wynagrodzenia",
        -9.97836685180664
      ],
      [
        "▁Re",
        -9.978822708129885
      ],
      [
        "▁procent",
        -9.979178428649902
      ],
      [
        "▁wiedzą",
        -9.979379653930664
      ],
      [
        "▁rzucił",
        -9.979683876037598
      ],
      [
        "cze",
        -9.97987461090088
      ],
      [
        "dzie",
        -9.980937004089355
      ],
      [
        "▁świetle",
        -9.98094081878662
      ],
      [
        "▁chciałem",
        -9.981278419494627
      ],
      [
        "▁Głos",
        -9.981671333312988
      ],
      [
        "▁sztuki",
        -9.98167610168457
      ],
      [
        "▁ostatnim",
        -9.98180866241455
      ],
      [
        "▁tobą",
        -9.98245334625244
      ],
      [
        "▁rozpoczął",
        -9.98268699645996
      ],
      [
        "▁wielkim",
        -9.982758522033691
      ],
      [
        "▁Warszawy",
        -9.983075141906738
      ],
      [
        "▁nową",
        -9.983234405517578
      ],
      [
        "▁pięciu",
        -9.983258247375488
      ],
      [
        "ać",
        -9.983428001403809
      ],
      [
        "▁wyraz",
        -9.985068321228027
      ],
      [
        "▁pamiętam",
        -9.985151290893556
      ],
      [
        "▁krótko",
        -9.985398292541504
      ],
      [
        "▁spod",
        -9.985963821411133
      ],
      [
        "▁wprowadzenia",
        -9.986054420471191
      ],
      [
        "▁publicznego",
        -9.986541748046877
      ],
      [
        "▁sądzę",
        -9.987052917480469
      ],
      [
        "sza",
        -9.98758029937744
      ],
      [
        "▁Centrum",
        -9.98782444000244
      ],
      [
        "▁młodzieży",
        -9.988077163696287
      ],
      [
        "▁jakiejś",
        -9.988679885864258
      ],
      [
        "▁zagranicznych",
        -9.98935604095459
      ],
      [
        "▁trybie",
        -9.989608764648438
      ],
      [
        "▁samą",
        -9.989974975585938
      ],
      [
        "▁pamięci",
        -9.99035930633545
      ],
      [
        "▁rodzin",
        -9.99082088470459
      ],
      [
        "▁Senat",
        -9.991520881652832
      ],
      [
        "▁miłości",
        -9.991652488708496
      ],
      [
        "▁dochodów",
        -9.991658210754396
      ],
      [
        "▁Projekt",
        -9.992076873779297
      ],
      [
        "▁politycznych",
        -9.992213249206545
      ],
      [
        "▁światło",
        -9.992253303527832
      ],
      [
        "▁Piotr",
        -9.992289543151855
      ],
      [
        "▁liście",
        -9.99293041229248
      ],
      [
        "▁rzeki",
        -9.993969917297363
      ],
      [
        "▁f",
        -9.994731903076172
      ],
      [
        "▁pracował",
        -9.996089935302734
      ],
      [
        "▁kwestie",
        -9.99639129638672
      ],
      [
        "N",
        -9.99845027923584
      ],
      [
        "▁Związku",
        -9.998538970947266
      ],
      [
        "▁żyje",
        -9.999649047851562
      ],
      [
        "sta",
        -10.000349044799805
      ],
      [
        "▁formy",
        -10.00106716156006
      ],
      [
        "▁samych",
        -10.001280784606934
      ],
      [
        "▁Gospodarki",
        -10.002552032470703
      ],
      [
        "▁leży",
        -10.003076553344728
      ],
      [
        "▁istotne",
        -10.003462791442873
      ],
      [
        "▁mianowicie",
        -10.004349708557127
      ],
      [
        "▁potrafi",
        -10.005867004394531
      ],
      [
        "um",
        -10.006229400634766
      ],
      [
        "art",
        -10.006514549255373
      ],
      [
        "▁szkole",
        -10.006811141967772
      ],
      [
        "▁człowiekiem",
        -10.006915092468262
      ],
      [
        "▁45",
        -10.007554054260254
      ],
      [
        "▁programów",
        -10.007844924926758
      ],
      [
        "▁piersi",
        -10.008512496948242
      ],
      [
        "▁czuł",
        -10.008752822875977
      ],
      [
        "▁Stanisław",
        -10.008885383605955
      ],
      [
        "▁dawno",
        -10.009002685546877
      ],
      [
        "▁szereg",
        -10.00913906097412
      ],
      [
        "▁dniem",
        -10.01015281677246
      ],
      [
        "▁członkiem",
        -10.010372161865234
      ],
      [
        "▁potrzeba",
        -10.011168479919434
      ],
      [
        "▁byłby",
        -10.011730194091797
      ],
      [
        "▁wspólnego",
        -10.01185417175293
      ],
      [
        "▁dokumentów",
        -10.012140274047852
      ],
      [
        "▁czasach",
        -10.012447357177734
      ],
      [
        "▁odpowiedzieć",
        -10.013005256652832
      ],
      [
        "▁oprócz",
        -10.013075828552246
      ],
      [
        "wi",
        -10.013736724853516
      ],
      [
        "▁uśmiechnął",
        -10.01510524749756
      ],
      [
        "▁jaka",
        -10.01650619506836
      ],
      [
        "▁wszedł",
        -10.017925262451172
      ],
      [
        "▁pozwala",
        -10.018365859985352
      ],
      [
        "ania",
        -10.018372535705566
      ],
      [
        "▁wyszedł",
        -10.018792152404783
      ],
      [
        "▁Art",
        -10.020524978637695
      ],
      [
        "▁powyższym",
        -10.020672798156738
      ],
      [
        "▁celów",
        -10.020724296569824
      ],
      [
        "▁miarę",
        -10.020883560180664
      ],
      [
        "▁jakości",
        -10.021085739135742
      ],
      [
        "▁książki",
        -10.022583961486816
      ],
      [
        "▁nowelizacji",
        -10.022807121276855
      ],
      [
        "▁liczbę",
        -10.02318286895752
      ],
      [
        "im",
        -10.02342128753662
      ],
      [
        "▁mały",
        -10.023612022399902
      ],
      [
        "▁późn",
        -10.024612426757812
      ],
      [
        "▁Biura",
        -10.024659156799316
      ],
      [
        "szy",
        -10.025053977966309
      ],
      [
        "▁Ochrony",
        -10.02506160736084
      ],
      [
        "▁edukacji",
        -10.025153160095217
      ],
      [
        "▁powoduje",
        -10.025959968566896
      ],
      [
        "np",
        -10.02671718597412
      ],
      [
        "▁zawołał",
        -10.026917457580566
      ],
      [
        "▁Nagle",
        -10.027351379394531
      ],
      [
        "▁musieli",
        -10.029504776000977
      ],
      [
        "▁szeroko",
        -10.029565811157228
      ],
      [
        "▁1996",
        -10.029829978942873
      ],
      [
        "▁zakres",
        -10.02985382080078
      ],
      [
        "▁Muszę",
        -10.029976844787598
      ],
      [
        "▁przedstawiciele",
        -10.03091526031494
      ],
      [
        "▁urzędu",
        -10.032858848571776
      ],
      [
        "▁Kościoła",
        -10.033507347106934
      ],
      [
        "▁ciężko",
        -10.034154891967772
      ],
      [
        "▁sezonie",
        -10.035654067993164
      ],
      [
        "▁głęboko",
        -10.036608695983888
      ],
      [
        "ści",
        -10.037029266357422
      ],
      [
        "▁cele",
        -10.037254333496094
      ],
      [
        "▁wziąć",
        -10.037485122680664
      ],
      [
        "▁XX",
        -10.038592338562012
      ],
      [
        "▁?",
        -10.039424896240234
      ],
      [
        "▁posłowi",
        -10.03968334197998
      ],
      [
        "owane",
        -10.040023803710938
      ],
      [
        "▁wyborach",
        -10.040507316589355
      ],
      [
        "▁Trybunału",
        -10.041330337524414
      ],
      [
        "▁widzi",
        -10.041744232177734
      ],
      [
        "▁Pierwszy",
        -10.041976928710938
      ],
      [
        "▁chciałby",
        -10.042661666870115
      ],
      [
        "▁zna",
        -10.042764663696287
      ],
      [
        "▁ceny",
        -10.043152809143066
      ],
      [
        "▁Krajowej",
        -10.043241500854492
      ],
      [
        "▁reformy",
        -10.044014930725098
      ],
      [
        "rze",
        -10.044085502624512
      ],
      [
        "jących",
        -10.0448637008667
      ],
      [
        "▁Marek",
        -10.045391082763672
      ],
      [
        "przewodniczącego",
        -10.045540809631348
      ],
      [
        "▁dawna",
        -10.048101425170898
      ],
      [
        "▁kogo",
        -10.048593521118164
      ],
      [
        "▁mówimy",
        -10.048620223999023
      ],
      [
        "▁naszą",
        -10.048957824707031
      ],
      [
        "▁odezwał",
        -10.049806594848633
      ],
      [
        "▁kwota",
        -10.050381660461426
      ],
      [
        "▁decyzja",
        -10.050860404968262
      ],
      [
        "▁pojawił",
        -10.052021980285645
      ],
      [
        "▁zawarte",
        -10.052414894104004
      ],
      [
        "▁studia",
        -10.0525484085083
      ],
      [
        "▁wielkości",
        -10.0525484085083
      ],
      [
        "▁tyłu",
        -10.05278491973877
      ],
      [
        "▁potrzebne",
        -10.053131103515623
      ],
      [
        "▁doskonale",
        -10.053750038146973
      ],
      [
        "▁pozostaje",
        -10.054854393005373
      ],
      [
        "▁obejmuje",
        -10.055109977722168
      ],
      [
        "▁praca",
        -10.05528163909912
      ],
      [
        "▁Urzędu",
        -10.05652904510498
      ],
      [
        "▁wejścia",
        -10.056845664978027
      ],
      [
        "▁dziewczyna",
        -10.057439804077148
      ],
      [
        "▁armii",
        -10.058575630187988
      ],
      [
        "▁numer",
        -10.059049606323242
      ],
      [
        "▁ramię",
        -10.05994987487793
      ],
      [
        "▁rodzaj",
        -10.062352180480955
      ],
      [
        "▁miłość",
        -10.062905311584473
      ],
      [
        "▁nasza",
        -10.063077926635742
      ],
      [
        "▁etapie",
        -10.063187599182127
      ],
      [
        "▁wspólnie",
        -10.063279151916504
      ],
      [
        "▁własnego",
        -10.063592910766602
      ],
      [
        "▁PKP",
        -10.064138412475586
      ],
      [
        "▁la",
        -10.064170837402344
      ],
      [
        "▁jutro",
        -10.065360069274902
      ],
      [
        "▁1994",
        -10.065682411193848
      ],
      [
        "▁Cóż",
        -10.066539764404297
      ],
      [
        "▁analizy",
        -10.067291259765623
      ],
      [
        "▁ostatecznie",
        -10.067639350891112
      ],
      [
        "▁podjął",
        -10.068631172180176
      ],
      [
        "▁małych",
        -10.068671226501465
      ],
      [
        "▁obecnej",
        -10.069018363952637
      ],
      [
        "▁firm",
        -10.070682525634766
      ],
      [
        "▁sumie",
        -10.071724891662598
      ],
      [
        "▁powyżej",
        -10.071796417236328
      ],
      [
        "▁prosto",
        -10.071863174438477
      ],
      [
        "pełnosprawnych",
        -10.072093963623049
      ],
      [
        "▁nowym",
        -10.073548316955566
      ],
      [
        "▁postać",
        -10.073662757873535
      ],
      [
        "▁długości",
        -10.074800491333008
      ],
      [
        "▁wykonywania",
        -10.075017929077148
      ],
      [
        "▁dodać",
        -10.075271606445312
      ],
      [
        "▁powietrze",
        -10.075520515441896
      ],
      [
        "▁niby",
        -10.075627326965332
      ],
      [
        "▁prowadzić",
        -10.076133728027344
      ],
      [
        "▁praktycznie",
        -10.076292991638184
      ],
      [
        "▁Ludzie",
        -10.076411247253418
      ],
      [
        "▁pierwszą",
        -10.079835891723633
      ],
      [
        "▁podniósł",
        -10.079888343811035
      ],
      [
        "▁pewna",
        -10.079909324645996
      ],
      [
        "▁mieszkania",
        -10.08060359954834
      ],
      [
        "▁transportu",
        -10.080777168273926
      ],
      [
        "▁zachowania",
        -10.081233024597168
      ],
      [
        "▁propozycję",
        -10.081720352172852
      ],
      [
        "▁podnieść",
        -10.083284378051758
      ],
      [
        "▁klub",
        -10.083395957946776
      ],
      [
        "▁związek",
        -10.083820343017578
      ],
      [
        "▁budowę",
        -10.083971977233888
      ],
      [
        "▁konieczność",
        -10.08444118499756
      ],
      [
        "▁Wobec",
        -10.085074424743652
      ],
      [
        "▁Kontroli",
        -10.08517837524414
      ],
      [
        "▁trudności",
        -10.086090087890623
      ],
      [
        "▁odległości",
        -10.086587905883787
      ],
      [
        "▁wskazuje",
        -10.08665370941162
      ],
      [
        "▁dopóki",
        -10.086835861206056
      ],
      [
        "▁podobne",
        -10.087237358093262
      ],
      [
        "▁przyjęła",
        -10.087302207946776
      ],
      [
        "▁punktów",
        -10.08770751953125
      ],
      [
        "▁język",
        -10.088088035583496
      ],
      [
        "▁Wielkiej",
        -10.089123725891112
      ],
      [
        "▁poniżej",
        -10.089234352111816
      ],
      [
        "▁Zawsze",
        -10.089879035949709
      ],
      [
        "▁panem",
        -10.090038299560549
      ],
      [
        "▁budżet",
        -10.090531349182127
      ],
      [
        "▁zostaje",
        -10.091185569763184
      ],
      [
        "▁znam",
        -10.09134292602539
      ],
      [
        "▁doświadczenia",
        -10.091397285461426
      ],
      [
        "▁przestrzeni",
        -10.09169578552246
      ],
      [
        "▁zajął",
        -10.091816902160645
      ],
      [
        "▁określa",
        -10.091992378234863
      ],
      [
        "▁wieczorem",
        -10.093375205993652
      ],
      [
        "▁1991",
        -10.09348201751709
      ],
      [
        "▁sensie",
        -10.09354305267334
      ],
      [
        "▁wzdłuż",
        -10.093734741210938
      ],
      [
        "kach",
        -10.0938081741333
      ],
      [
        "▁dziennego",
        -10.094340324401855
      ],
      [
        "▁Przechodzimy",
        -10.095946311950684
      ],
      [
        "▁żona",
        -10.096074104309082
      ],
      [
        "▁pełne",
        -10.09645652770996
      ],
      [
        "▁dosyć",
        -10.096599578857422
      ],
      [
        "skiej",
        -10.097393035888672
      ],
      [
        "▁wczoraj",
        -10.09819221496582
      ],
      [
        "▁dyrektora",
        -10.098238945007324
      ],
      [
        "▁zechce",
        -10.09836483001709
      ],
      [
        "prze",
        -10.09854793548584
      ],
      [
        "owski",
        -10.099332809448242
      ],
      [
        "▁Ministerstwie",
        -10.09992504119873
      ],
      [
        "▁Al",
        -10.10044002532959
      ],
      [
        "pa",
        -10.100700378417969
      ],
      [
        "▁czasami",
        -10.100797653198242
      ],
      [
        "▁kościoła",
        -10.10124397277832
      ],
      [
        "▁kary",
        -10.101534843444824
      ],
      [
        "▁Le",
        -10.103318214416504
      ],
      [
        "▁dodatkowe",
        -10.104238510131836
      ],
      [
        "▁dłoni",
        -10.105232238769531
      ],
      [
        "▁Mój",
        -10.10627269744873
      ],
      [
        "▁dziesięć",
        -10.106450080871582
      ],
      [
        "▁Były",
        -10.106670379638672
      ],
      [
        "▁Polityki",
        -10.10747528076172
      ],
      [
        "▁Większość",
        -10.107985496520996
      ],
      [
        "▁XIX",
        -10.108500480651855
      ],
      [
        "▁sześć",
        -10.10899257659912
      ],
      [
        "▁wysokość",
        -10.109334945678713
      ],
      [
        "▁patrząc",
        -10.109339714050291
      ],
      [
        "▁państwowych",
        -10.109993934631348
      ],
      [
        "▁1995",
        -10.11008071899414
      ],
      [
        "▁Niemcy",
        -10.110454559326172
      ],
      [
        "▁przeszedł",
        -10.110819816589355
      ],
      [
        "Po",
        -10.110827445983888
      ],
      [
        "▁samochód",
        -10.110868453979492
      ],
      [
        "▁wersji",
        -10.110962867736816
      ],
      [
        "▁stwierdzić",
        -10.11106014251709
      ],
      [
        "▁wielkiego",
        -10.111987113952637
      ],
      [
        "▁dolarów",
        -10.112297058105469
      ],
      [
        "▁Agencji",
        -10.112937927246094
      ],
      [
        "▁Ona",
        -10.113170623779297
      ],
      [
        "▁krok",
        -10.113438606262209
      ],
      [
        "▁zobaczył",
        -10.115260124206545
      ],
      [
        "▁kategorii",
        -10.115514755249023
      ],
      [
        "▁zauważyć",
        -10.115888595581056
      ],
      [
        "▁następuje",
        -10.116033554077148
      ],
      [
        "▁działanie",
        -10.116106986999512
      ],
      [
        "▁pragnę",
        -10.116372108459473
      ],
      [
        "▁wysoko",
        -10.11656665802002
      ],
      [
        "▁propozycje",
        -10.118204116821287
      ],
      [
        "ono",
        -10.118682861328123
      ],
      [
        "▁społeczne",
        -10.119707107543944
      ],
      [
        "▁pań",
        -10.119757652282717
      ],
      [
        "▁szacunku",
        -10.120233535766602
      ],
      [
        "▁spółek",
        -10.121028900146484
      ],
      [
        "▁skali",
        -10.122374534606934
      ],
      [
        "▁regulacji",
        -10.123397827148438
      ],
      [
        "▁przepisu",
        -10.12352466583252
      ],
      [
        "▁podstawowych",
        -10.124152183532717
      ],
      [
        "▁młodych",
        -10.124526977539062
      ],
      [
        "▁świadomość",
        -10.124566078186035
      ],
      [
        "\\'",
        -10.12481689453125
      ],
      [
        "▁zdania",
        -10.125048637390137
      ],
      [
        "▁dwadzieścia",
        -10.125259399414062
      ],
      [
        "▁obszar",
        -10.125359535217283
      ],
      [
        "▁odpowiednio",
        -10.126588821411133
      ],
      [
        "▁natury",
        -10.12697696685791
      ],
      [
        "▁choroby",
        -10.1271333694458
      ],
      [
        "▁zrozumieć",
        -10.128005027770996
      ],
      [
        "▁zmienia",
        -10.128118515014648
      ],
      [
        "▁przypomnieć",
        -10.128310203552246
      ],
      [
        "▁źródeł",
        -10.128387451171877
      ],
      [
        "gi",
        -10.128418922424316
      ],
      [
        "▁ilość",
        -10.128509521484377
      ],
      [
        "▁par",
        -10.129204750061035
      ],
      [
        "▁Państwo",
        -10.129651069641112
      ],
      [
        "▁wystarczy",
        -10.13004207611084
      ],
      [
        "▁okoliczności",
        -10.13016128540039
      ],
      [
        "▁zabranie",
        -10.130940437316896
      ],
      [
        "▁żyć",
        -10.130987167358398
      ],
      [
        "▁Nad",
        -10.13139533996582
      ],
      [
        "▁stacji",
        -10.132431030273438
      ],
      [
        "▁Prawa",
        -10.133182525634766
      ],
      [
        "▁podjąć",
        -10.13357162475586
      ],
      [
        "▁własnym",
        -10.13410472869873
      ],
      [
        "▁rodzinie",
        -10.134124755859377
      ],
      [
        "▁terytorium",
        -10.13420581817627
      ],
      [
        "▁dużą",
        -10.134553909301758
      ],
      [
        "▁odwrócił",
        -10.134621620178224
      ],
      [
        "▁najczęściej",
        -10.134634017944336
      ],
      [
        "▁obecności",
        -10.13482666015625
      ],
      [
        "▁brzegu",
        -10.13571071624756
      ],
      [
        "▁ramionami",
        -10.135998725891112
      ],
      [
        "▁obowiązków",
        -10.136153221130373
      ],
      [
        "▁dużej",
        -10.13621997833252
      ],
      [
        "▁przyjęty",
        -10.136408805847168
      ],
      [
        "▁woj",
        -10.136685371398926
      ],
      [
        "▁Zresztą",
        -10.137185096740724
      ],
      [
        "▁ludźmi",
        -10.139090538024902
      ],
      [
        "▁sprzeciwu",
        -10.139982223510742
      ],
      [
        "▁2019",
        -10.141244888305664
      ],
      [
        "▁panowie",
        -10.141633987426758
      ],
      [
        "sko",
        -10.141667366027832
      ],
      [
        "▁500",
        -10.142508506774902
      ],
      [
        "▁mogłem",
        -10.14280605316162
      ],
      [
        "os",
        -10.143942832946776
      ],
      [
        "owany",
        -10.14406967163086
      ],
      [
        "▁^",
        -10.144327163696287
      ],
      [
        "▁kości",
        -10.144475936889648
      ],
      [
        "▁głośno",
        -10.144911766052246
      ],
      [
        "ton",
        -10.14583683013916
      ],
      [
        "▁Komisję",
        -10.146175384521484
      ],
      [
        "▁szpitala",
        -10.146958351135254
      ],
      [
        "▁tygodni",
        -10.147665023803713
      ],
      [
        "▁widziałem",
        -10.148201942443848
      ],
      [
        "▁własną",
        -10.148266792297363
      ],
      [
        "▁duży",
        -10.1484375
      ],
      [
        "▁krew",
        -10.14845085144043
      ],
      [
        "▁telewizji",
        -10.148494720458984
      ],
      [
        "▁sposobu",
        -10.14860725402832
      ],
      [
        "▁pewną",
        -10.150246620178224
      ],
      [
        "▁byłaby",
        -10.150250434875488
      ],
      [
        "▁mąż",
        -10.150812149047852
      ],
      [
        "▁si",
        -10.150960922241213
      ],
      [
        ");",
        -10.151201248168944
      ],
      [
        "▁Coś",
        -10.15190315246582
      ],
      [
        "▁ofiar",
        -10.151963233947754
      ],
      [
        "▁towarów",
        -10.152941703796388
      ],
      [
        "▁kontekście",
        -10.154197692871094
      ],
      [
        "▁większą",
        -10.155123710632324
      ],
      [
        "▁infrastruktury",
        -10.155598640441896
      ],
      [
        "▁pracować",
        -10.15603733062744
      ],
      [
        "▁druku",
        -10.156118392944336
      ],
      [
        "▁zdecydowanie",
        -10.156291961669922
      ],
      [
        "▁chcieli",
        -10.157442092895508
      ],
      [
        "sze",
        -10.157675743103027
      ],
      [
        "▁szefa",
        -10.157833099365234
      ],
      [
        "▁pisze",
        -10.158418655395508
      ],
      [
        "▁twoje",
        -10.15845775604248
      ],
      [
        "▁nazwę",
        -10.158476829528809
      ],
      [
        "▁powie",
        -10.158565521240234
      ],
      [
        "▁wrócić",
        -10.15933322906494
      ],
      [
        "▁ton",
        -10.160337448120115
      ],
      [
        "▁wzrokiem",
        -10.160604476928713
      ],
      [
        "▁Dzisiaj",
        -10.161346435546877
      ],
      [
        "▁Albo",
        -10.161441802978516
      ],
      [
        "▁Ziemi",
        -10.16167163848877
      ],
      [
        "▁regionie",
        -10.16254425048828
      ],
      [
        "▁Och",
        -10.162847518920898
      ],
      [
        "▁siedział",
        -10.163028717041016
      ],
      [
        "nę",
        -10.16427230834961
      ],
      [
        "▁stylu",
        -10.165046691894531
      ],
      [
        "uję",
        -10.165807723999023
      ],
      [
        "▁ostatniej",
        -10.165975570678713
      ],
      [
        "▁Poprawka",
        -10.166189193725586
      ],
      [
        "▁czeka",
        -10.166633605957031
      ],
      [
        "▁materiałów",
        -10.166781425476074
      ],
      [
        "▁ruszył",
        -10.167112350463867
      ],
      [
        "▁ko",
        -10.167402267456056
      ],
      [
        "▁napisał",
        -10.1674222946167
      ],
      [
        "▁Praw",
        -10.168654441833496
      ],
      [
        "▁przyczyn",
        -10.169154167175291
      ],
      [
        "▁bliżej",
        -10.169961929321287
      ],
      [
        "▁rynek",
        -10.17020320892334
      ],
      [
        "▁prywatyzacji",
        -10.170554161071776
      ],
      [
        "▁nowa",
        -10.170741081237791
      ],
      [
        "▁senatora",
        -10.17081356048584
      ],
      [
        "▁wielkiej",
        -10.171119689941406
      ],
      [
        "ha",
        -10.171497344970703
      ],
      [
        "▁skutek",
        -10.171838760375977
      ],
      [
        "ang",
        -10.171862602233888
      ],
      [
        "▁wielokrotnie",
        -10.1719970703125
      ],
      [
        "▁Tutaj",
        -10.172566413879396
      ],
      [
        "▁ludziom",
        -10.17350959777832
      ],
      [
        "▁społecznego",
        -10.1740140914917
      ],
      [
        "▁samochodu",
        -10.174686431884766
      ],
      [
        "▁każda",
        -10.17506980895996
      ],
      [
        "▁liczne",
        -10.175127029418944
      ],
      [
        "▁pewnej",
        -10.1756591796875
      ],
      [
        "▁Sąd",
        -10.175997734069824
      ],
      [
        "▁wielkich",
        -10.17609405517578
      ],
      [
        "▁inna",
        -10.176718711853027
      ],
      [
        "▁zamierza",
        -10.177054405212402
      ],
      [
        "▁wydał",
        -10.177624702453612
      ],
      [
        "▁mieliśmy",
        -10.1776762008667
      ],
      [
        "▁tle",
        -10.178431510925291
      ],
      [
        "▁pochodzi",
        -10.179014205932615
      ],
      [
        "▁senatorów",
        -10.17961883544922
      ],
      [
        "▁przodu",
        -10.179924011230469
      ],
      [
        "▁oświadczył",
        -10.180482864379885
      ],
      [
        "▁1945",
        -10.18107795715332
      ],
      [
        "▁stanowisku",
        -10.18118381500244
      ],
      [
        "▁trwa",
        -10.181224822998049
      ],
      [
        "▁Paweł",
        -10.181453704833984
      ],
      [
        "▁poważnie",
        -10.181612014770508
      ],
      [
        "▁Jerzy",
        -10.182595252990724
      ],
      [
        "▁próbował",
        -10.183161735534668
      ],
      [
        "▁akt",
        -10.18324375152588
      ],
      [
        "Y",
        -10.183245658874512
      ],
      [
        "▁pro",
        -10.18349266052246
      ],
      [
        "▁film",
        -10.183552742004396
      ],
      [
        "▁statku",
        -10.184276580810549
      ],
      [
        "▁mówiłem",
        -10.184449195861816
      ],
      [
        "▁Wreszcie",
        -10.184514999389648
      ],
      [
        "▁5.",
        -10.185369491577148
      ],
      [
        "▁1939",
        -10.18616008758545
      ],
      [
        "▁składa",
        -10.186538696289062
      ],
      [
        "▁długi",
        -10.18667984008789
      ],
      [
        "▁Będzie",
        -10.187214851379396
      ],
      [
        "▁pozwoli",
        -10.18807601928711
      ],
      [
        "▁Biuro",
        -10.188397407531738
      ],
      [
        "et",
        -10.188422203063965
      ],
      [
        "▁Adam",
        -10.188913345336914
      ],
      [
        "▁jasne",
        -10.188942909240724
      ],
      [
        "▁Józef",
        -10.189105987548828
      ],
      [
        "acja",
        -10.189494132995604
      ],
      [
        "▁dwu",
        -10.189562797546388
      ],
      [
        "▁stosowania",
        -10.191069602966309
      ],
      [
        "▁młody",
        -10.19107437133789
      ],
      [
        "▁prawdę",
        -10.191790580749512
      ],
      [
        "▁wynik",
        -10.192194938659668
      ],
      [
        "▁nadzoru",
        -10.19251823425293
      ],
      [
        "▁Musimy",
        -10.19275188446045
      ],
      [
        "▁spokój",
        -10.192764282226562
      ],
      [
        "▁powodów",
        -10.193615913391112
      ],
      [
        "▁projekty",
        -10.194226264953612
      ],
      [
        "▁ostatnio",
        -10.194502830505373
      ],
      [
        "▁skutki",
        -10.194865226745604
      ],
      [
        "wie",
        -10.194897651672363
      ],
      [
        "▁ściany",
        -10.195337295532228
      ],
      [
        "▁rąk",
        -10.196294784545898
      ],
      [
        "ak",
        -10.19658660888672
      ],
      [
        "▁NIK",
        -10.19676113128662
      ],
      [
        "▁organ",
        -10.197327613830566
      ],
      [
        "▁twój",
        -10.197381019592283
      ],
      [
        "eniu",
        -10.197515487670898
      ],
      [
        "▁błąd",
        -10.199087142944336
      ],
      [
        "ter",
        -10.199152946472168
      ],
      [
        "▁języku",
        -10.199467658996582
      ],
      [
        "▁położona",
        -10.2002534866333
      ],
      [
        "wo",
        -10.200278282165527
      ],
      [
        "▁brat",
        -10.201229095458984
      ],
      [
        "▁ZSRR",
        -10.201650619506836
      ],
      [
        "▁wyjaśnić",
        -10.202075004577637
      ],
      [
        "▁usłyszał",
        -10.202229499816896
      ],
      [
        "▁uprawnień",
        -10.202255249023438
      ],
      [
        "▁ból",
        -10.202658653259276
      ],
      [
        "▁zawodowych",
        -10.20375156402588
      ],
      [
        "cza",
        -10.203814506530762
      ],
      [
        "▁prawne",
        -10.20395565032959
      ],
      [
        "▁wyborów",
        -10.204317092895508
      ],
      [
        "▁Sądzę",
        -10.205348014831545
      ],
      [
        "▁zdaje",
        -10.205469131469728
      ],
      [
        "▁Że",
        -10.205962181091309
      ],
      [
        "▁kształt",
        -10.206786155700684
      ],
      [
        "at",
        -10.207359313964844
      ],
      [
        "▁Anglii",
        -10.207781791687012
      ],
      [
        "▁miesiące",
        -10.207931518554688
      ],
      [
        "▁szansę",
        -10.208017349243164
      ],
      [
        "▁stóp",
        -10.208027839660645
      ],
      [
        "▁konieczne",
        -10.20823574066162
      ],
      [
        "▁Później",
        -10.208526611328123
      ],
      [
        "▁domów",
        -10.208687782287598
      ],
      [
        "▁zakładów",
        -10.209141731262209
      ],
      [
        "▁stanął",
        -10.2092924118042
      ],
      [
        "▁przepisami",
        -10.209650039672852
      ],
      [
        "▁profesor",
        -10.2098388671875
      ],
      [
        "▁1993",
        -10.210190773010254
      ],
      [
        "▁Niemczech",
        -10.210247039794922
      ],
      [
        "▁pola",
        -10.210866928100586
      ],
      [
        "▁Go",
        -10.21156883239746
      ],
      [
        "▁wyjaśnienia",
        -10.212414741516112
      ],
      [
        "▁konieczności",
        -10.212903022766112
      ],
      [
        "▁sądów",
        -10.213980674743652
      ],
      [
        "▁okna",
        -10.214285850524902
      ],
      [
        "▁powstania",
        -10.214591026306152
      ],
      [
        "ar",
        -10.21566390991211
      ],
      [
        "▁męża",
        -10.215780258178713
      ],
      [
        "▁Rolnictwa",
        -10.216315269470217
      ],
      [
        "▁uzyskania",
        -10.216989517211914
      ],
      [
        "▁1992",
        -10.217096328735352
      ],
      [
        "▁rolników",
        -10.217277526855469
      ],
      [
        "▁stole",
        -10.217549324035645
      ],
      [
        "▁procedury",
        -10.217610359191896
      ],
      [
        "▁Ad",
        -10.217811584472656
      ],
      [
        "▁prof",
        -10.218338012695312
      ],
      [
        "▁moc",
        -10.218734741210938
      ],
      [
        "▁Sądu",
        -10.219489097595217
      ],
      [
        "▁handlu",
        -10.220398902893066
      ],
      [
        "▁usługi",
        -10.220540046691896
      ],
      [
        "▁zgody",
        -10.22080898284912
      ],
      [
        "▁ograniczenia",
        -10.221118927001951
      ],
      [
        "▁zajmuje",
        -10.221235275268556
      ],
      [
        "▁długie",
        -10.221976280212402
      ],
      [
        "▁zapewnić",
        -10.222386360168455
      ],
      [
        "▁uzyskać",
        -10.223260879516602
      ],
      [
        "▁Kodeksu",
        -10.223487854003906
      ],
      [
        "▁wszędzie",
        -10.223544120788574
      ],
      [
        "▁likwidacji",
        -10.223919868469238
      ],
      [
        "▁Jesteś",
        -10.224016189575195
      ],
      [
        "▁pokój",
        -10.224117279052734
      ],
      [
        "▁drzew",
        -10.224218368530272
      ],
      [
        "▁Stąd",
        -10.22506046295166
      ],
      [
        "▁zarazem",
        -10.22552490234375
      ],
      [
        "▁konstytucji",
        -10.22630214691162
      ],
      [
        "▁sygn",
        -10.226485252380373
      ],
      [
        "▁podróży",
        -10.227126121520996
      ],
      [
        "▁propozycja",
        -10.227519989013672
      ],
      [
        "▁Masz",
        -10.227843284606934
      ],
      [
        "▁dostęp",
        -10.227895736694336
      ],
      [
        "▁miejscach",
        -10.229050636291504
      ],
      [
        "ana",
        -10.22963809967041
      ],
      [
        "▁drzewa",
        -10.229711532592772
      ],
      [
        "▁powiatu",
        -10.229865074157717
      ],
      [
        "▁udziałem",
        -10.230079650878906
      ],
      [
        "▁głosowanie",
        -10.230549812316896
      ],
      [
        "▁biorąc",
        -10.230807304382324
      ],
      [
        "▁wodę",
        -10.231268882751465
      ],
      [
        "▁Skoro",
        -10.23207187652588
      ],
      [
        "▁sensu",
        -10.232399940490724
      ],
      [
        "▁ochronie",
        -10.232516288757324
      ],
      [
        "▁Kultury",
        -10.23326301574707
      ],
      [
        "▁dokument",
        -10.23369598388672
      ],
      [
        "▁lekarza",
        -10.233715057373049
      ],
      [
        "▁Maria",
        -10.233771324157717
      ],
      [
        "▁Panowie",
        -10.234137535095217
      ],
      [
        "▁odpowiednie",
        -10.234701156616213
      ],
      [
        "▁for",
        -10.235702514648438
      ],
      [
        "wszy",
        -10.236021041870115
      ],
      [
        "▁poszedł",
        -10.236127853393556
      ],
      [
        "▁inną",
        -10.236449241638184
      ],
      [
        "▁35",
        -10.23662281036377
      ],
      [
        "▁los",
        -10.236638069152832
      ],
      [
        "▁poinformował",
        -10.236651420593262
      ],
      [
        "▁SPS",
        -10.23823070526123
      ],
      [
        "▁San",
        -10.238548278808594
      ],
      [
        "▁faktycznie",
        -10.240592002868652
      ],
      [
        "▁ministerstwo",
        -10.24093246459961
      ],
      [
        "▁interpelację",
        -10.241341590881348
      ],
      [
        "▁ocenie",
        -10.241397857666016
      ],
      [
        "▁szukać",
        -10.241541862487791
      ],
      [
        "▁poczuł",
        -10.241827011108398
      ],
      [
        "owymi",
        -10.242441177368164
      ],
      [
        "▁któremu",
        -10.242701530456545
      ],
      [
        "▁dotyczą",
        -10.242874145507812
      ],
      [
        "▁skarbu",
        -10.243610382080078
      ],
      [
        "▁prowadzonych",
        -10.24380588531494
      ],
      [
        "▁wewnętrznych",
        -10.243979454040527
      ],
      [
        "▁dotacji",
        -10.244095802307127
      ],
      [
        "▁gości",
        -10.244312286376951
      ],
      [
        "▁John",
        -10.244462966918944
      ],
      [
        "odpowiedzialność",
        -10.244791030883787
      ],
      [
        "▁pracuje",
        -10.245759963989258
      ],
      [
        "▁Podobnie",
        -10.246448516845703
      ],
      [
        "▁telefon",
        -10.24671745300293
      ],
      [
        "▁80",
        -10.246726036071776
      ],
      [
        "▁liczyć",
        -10.24672794342041
      ],
      [
        "▁dużym",
        -10.246734619140623
      ],
      [
        "▁Oto",
        -10.246844291687012
      ],
      [
        "▁podstawy",
        -10.247827529907228
      ],
      [
        "▁70",
        -10.248213768005373
      ],
      [
        "▁ażeby",
        -10.24866771697998
      ],
      [
        "▁Czyli",
        -10.248675346374512
      ],
      [
        "▁Anna",
        -10.248993873596191
      ],
      [
        "▁zależności",
        -10.249224662780762
      ],
      [
        "▁myśleć",
        -10.249670028686523
      ],
      [
        "▁osobiście",
        -10.250295639038086
      ],
      [
        "▁przedsiębiorców",
        -10.25049114227295
      ],
      [
        "aś",
        -10.251476287841797
      ],
      [
        "▁wina",
        -10.252117156982422
      ],
      [
        "▁znany",
        -10.252142906188965
      ],
      [
        "▁wewnątrz",
        -10.252286911010742
      ],
      [
        "▁kieszeni",
        -10.252291679382324
      ],
      [
        "▁Wśród",
        -10.252490043640137
      ],
      [
        "▁terminie",
        -10.252689361572266
      ],
      [
        "▁=",
        -10.25303077697754
      ],
      [
        "ina",
        -10.25330638885498
      ],
      [
        "▁Ach",
        -10.254240036010742
      ],
      [
        "ali",
        -10.254674911499023
      ],
      [
        "▁książę",
        -10.255244255065918
      ],
      [
        "▁obie",
        -10.25538444519043
      ],
      [
        "▁tygodniu",
        -10.255497932434082
      ],
      [
        "▁roboty",
        -10.25625228881836
      ],
      [
        "▁inicjatywy",
        -10.256258010864258
      ],
      [
        "eni",
        -10.256314277648926
      ],
      [
        "▁kontakt",
        -10.256400108337402
      ],
      [
        "▁wiedziała",
        -10.257209777832031
      ],
      [
        "▁przedstawiciela",
        -10.257391929626465
      ],
      [
        "▁sporo",
        -10.257478713989258
      ],
      [
        "▁zasadach",
        -10.25866413116455
      ],
      [
        "▁własności",
        -10.258862495422363
      ],
      [
        "▁Jednakże",
        -10.259370803833008
      ],
      [
        "▁musisz",
        -10.25986099243164
      ],
      [
        "▁pomimo",
        -10.260037422180176
      ],
      [
        "▁sa",
        -10.261146545410156
      ],
      [
        "▁Uniwersytetu",
        -10.261162757873535
      ],
      [
        "▁powstał",
        -10.261991500854492
      ],
      [
        "▁oczami",
        -10.26219367980957
      ],
      [
        "▁300",
        -10.262645721435549
      ],
      [
        "▁rad",
        -10.262776374816896
      ],
      [
        "▁patrzył",
        -10.263238906860352
      ],
      [
        "▁zakończeniu",
        -10.264174461364746
      ],
      [
        "▁1989",
        -10.264622688293455
      ],
      [
        "▁przejść",
        -10.265458106994627
      ],
      [
        "▁anty",
        -10.26569652557373
      ],
      [
        "▁przygotowania",
        -10.265702247619627
      ],
      [
        "▁Kościół",
        -10.26614761352539
      ],
      [
        "▁zagrożenia",
        -10.266912460327148
      ],
      [
        "ke",
        -10.26778507232666
      ],
      [
        "▁Komitetu",
        -10.267873764038086
      ],
      [
        "▁wiatr",
        -10.268386840820312
      ],
      [
        "▁produktów",
        -10.26864242553711
      ],
      [
        "▁oparciu",
        -10.269365310668944
      ],
      [
        "jak",
        -10.269780158996582
      ],
      [
        "▁znalazła",
        -10.270771980285645
      ],
      [
        "kom",
        -10.271737098693848
      ],
      [
        "▁częścią",
        -10.272077560424805
      ],
      [
        "▁osobę",
        -10.27326774597168
      ],
      [
        "▁cm",
        -10.273358345031738
      ],
      [
        "▁niezależnie",
        -10.274188041687012
      ],
      [
        "▁zwiększenie",
        -10.274619102478027
      ],
      [
        "▁spojrzenie",
        -10.275687217712402
      ],
      [
        "▁porównaniu",
        -10.27601146697998
      ],
      [
        "▁źródła",
        -10.276137351989746
      ],
      [
        "▁wsparcie",
        -10.276469230651855
      ],
      [
        "przy",
        -10.27687168121338
      ],
      [
        "▁dr",
        -10.2771635055542
      ],
      [
        "▁godzinę",
        -10.277241706848145
      ],
      [
        "▁opłat",
        -10.277710914611816
      ],
      [
        "▁trzeci",
        -10.278100967407228
      ],
      [
        "X",
        -10.27945327758789
      ],
      [
        "▁tydzień",
        -10.27965259552002
      ],
      [
        "▁uzyskał",
        -10.279745101928713
      ],
      [
        "ik",
        -10.28001594543457
      ],
      [
        "▁służb",
        -10.280574798583984
      ],
      [
        "▁relacji",
        -10.280743598937988
      ],
      [
        "▁wyników",
        -10.281331062316896
      ],
      [
        "▁Pierwsze",
        -10.281396865844728
      ],
      [
        "▁Został",
        -10.281907081604004
      ],
      [
        "▁wydawało",
        -10.282184600830078
      ],
      [
        "▁zazwyczaj",
        -10.282930374145508
      ],
      [
        "▁kuchni",
        -10.28319263458252
      ],
      [
        "▁dobrym",
        -10.283206939697266
      ],
      [
        "▁należałoby",
        -10.283377647399902
      ],
      [
        "ię",
        -10.283818244934082
      ],
      [
        "▁podziału",
        -10.284139633178713
      ],
      [
        "ok",
        -10.284704208374023
      ],
      [
        "ji",
        -10.285436630249023
      ],
      [
        "▁grupie",
        -10.28686809539795
      ],
      [
        "łam",
        -10.287152290344238
      ],
      [
        "▁każde",
        -10.287625312805176
      ],
      [
        "▁wchodzi",
        -10.28787326812744
      ],
      [
        "iu",
        -10.288890838623049
      ],
      [
        "▁wszelkich",
        -10.288948059082031
      ],
      [
        "▁żony",
        -10.289600372314451
      ],
      [
        "▁Dziś",
        -10.289703369140623
      ],
      [
        "▁członkowie",
        -10.28997039794922
      ],
      [
        "▁tobie",
        -10.290131568908691
      ],
      [
        "=",
        -10.29033660888672
      ],
      [
        "▁Mi",
        -10.290410995483398
      ],
      [
        "▁powietrza",
        -10.291351318359377
      ],
      [
        "▁zachowanie",
        -10.291387557983398
      ],
      [
        "▁wyjątkiem",
        -10.291930198669434
      ],
      [
        "▁znane",
        -10.29251480102539
      ],
      [
        "▁elementów",
        -10.292709350585938
      ],
      [
        "▁więzienia",
        -10.292730331420898
      ],
      [
        "▁funduszu",
        -10.29300022125244
      ],
      [
        "▁nazwy",
        -10.293054580688477
      ],
      [
        "▁Ustawa",
        -10.29311180114746
      ],
      [
        "ską",
        -10.293292045593262
      ],
      [
        "▁boku",
        -10.293365478515623
      ],
      [
        "▁Klub",
        -10.293780326843262
      ],
      [
        "▁powinni",
        -10.296992301940918
      ],
      [
        "▁dokumenty",
        -10.29748821258545
      ],
      [
        "▁uznał",
        -10.29753589630127
      ],
      [
        "▁przyznał",
        -10.29833698272705
      ],
      [
        "▁Ktoś",
        -10.29896640777588
      ],
      [
        "▁von",
        -10.299588203430176
      ],
      [
        "▁przemysłu",
        -10.299833297729492
      ],
      [
        "▁operacji",
        -10.300765991210938
      ],
      [
        "▁form",
        -10.301117897033691
      ],
      [
        "▁przyszłość",
        -10.30121612548828
      ],
      [
        "▁wiadomość",
        -10.301231384277344
      ],
      [
        "▁mm",
        -10.301643371582031
      ],
      [
        "▁przedstawienie",
        -10.301924705505373
      ],
      [
        "▁pochodzenia",
        -10.3019437789917
      ],
      [
        "▁majątku",
        -10.302014350891112
      ],
      [
        "▁elementy",
        -10.30234432220459
      ],
      [
        "▁miesiąc",
        -10.302393913269045
      ],
      [
        "▁uczelni",
        -10.302525520324709
      ],
      [
        "▁prowincji",
        -10.302820205688477
      ],
      [
        "▁organy",
        -10.302901268005373
      ],
      [
        "▁marszałek",
        -10.303275108337402
      ],
      [
        "▁kwestię",
        -10.30333423614502
      ],
      [
        "▁Prokuratura",
        -10.303738594055176
      ],
      [
        "▁Jesteśmy",
        -10.304033279418944
      ],
      [
        "▁próby",
        -10.305168151855469
      ],
      [
        "we",
        -10.305181503295898
      ],
      [
        "▁otworzył",
        -10.305423736572266
      ],
      [
        "▁dowiedzieć",
        -10.305459022521973
      ],
      [
        "▁Trudno",
        -10.306217193603516
      ],
      [
        "▁lekarzy",
        -10.3065185546875
      ],
      [
        "▁stara",
        -10.306580543518066
      ],
      [
        "▁Akademii",
        -10.306660652160645
      ],
      [
        "▁nazywa",
        -10.307122230529783
      ],
      [
        "▁słońca",
        -10.307170867919922
      ],
      [
        "▁treść",
        -10.30740737915039
      ],
      [
        "▁mistrzostw",
        -10.307509422302246
      ],
      [
        "▁przyjęta",
        -10.30799961090088
      ],
      [
        "▁należała",
        -10.30807113647461
      ],
      [
        "▁południe",
        -10.308745384216309
      ],
      [
        "▁łóżka",
        -10.30935764312744
      ],
      [
        "▁dużych",
        -10.309359550476074
      ],
      [
        "▁uśmiechem",
        -10.309642791748049
      ],
      [
        "▁Ile",
        -10.31033992767334
      ],
      [
        "▁węgla",
        -10.311673164367676
      ],
      [
        "▁wiek",
        -10.311776161193848
      ],
      [
        "▁dwoma",
        -10.311907768249512
      ],
      [
        "▁nazwisko",
        -10.312583923339844
      ],
      [
        "▁zaczęły",
        -10.313546180725098
      ],
      [
        "▁Ba",
        -10.313605308532717
      ],
      [
        "▁praktyce",
        -10.313682556152344
      ],
      [
        "▁meczu",
        -10.314162254333496
      ],
      [
        "▁nazwa",
        -10.314542770385742
      ],
      [
        "▁obiektów",
        -10.314688682556152
      ],
      [
        "▁problemem",
        -10.31493091583252
      ],
      [
        "▁żadne",
        -10.315343856811523
      ],
      [
        "▁głównym",
        -10.316701889038086
      ],
      [
        "▁księcia",
        -10.316900253295898
      ],
      [
        "▁polska",
        -10.317211151123049
      ],
      [
        "▁pojawia",
        -10.31811809539795
      ],
      [
        "▁gen",
        -10.31824016571045
      ],
      [
        "▁wnioskiem",
        -10.318604469299316
      ],
      [
        "▁osobom",
        -10.319059371948242
      ],
      [
        "▁narodu",
        -10.319437980651855
      ],
      [
        "▁ogromne",
        -10.319502830505373
      ],
      [
        "▁komisja",
        -10.319622039794922
      ],
      [
        "▁spośród",
        -10.319872856140137
      ],
      [
        "▁Brytanii",
        -10.320551872253418
      ],
      [
        "▁polityczne",
        -10.320813179016112
      ],
      [
        "▁porozumienia",
        -10.320920944213867
      ],
      [
        "▁przedstawia",
        -10.321152687072754
      ],
      [
        "▁politycznej",
        -10.322550773620604
      ],
      [
        "2.",
        -10.323759078979492
      ],
      [
        "▁rodzina",
        -10.324627876281738
      ],
      [
        "▁spytała",
        -10.324823379516602
      ],
      [
        "▁Polskę",
        -10.32497215270996
      ],
      [
        "▁VAT",
        -10.32637882232666
      ],
      [
        "▁wprowadzić",
        -10.32664680480957
      ],
      [
        "▁sprzeciw",
        -10.326807975769045
      ],
      [
        "▁zatrzymał",
        -10.326824188232422
      ],
      [
        "▁wynosiła",
        -10.326937675476074
      ],
      [
        "▁władzę",
        -10.327016830444336
      ],
      [
        "▁chorych",
        -10.327683448791504
      ],
      [
        "▁momentu",
        -10.327933311462402
      ],
      [
        "▁ponadto",
        -10.328075408935549
      ],
      [
        "▁kompetencji",
        -10.32830047607422
      ],
      [
        "▁gwałtownie",
        -10.328996658325195
      ],
      [
        "▁powietrzu",
        -10.329134941101074
      ],
      [
        "▁brata",
        -10.329154014587402
      ],
      [
        "▁konsekwencji",
        -10.32969093322754
      ],
      [
        "▁informacja",
        -10.330696105957031
      ],
      [
        "▁wyjścia",
        -10.331881523132324
      ],
      [
        "▁reprezentacji",
        -10.332615852355955
      ],
      [
        "▁sens",
        -10.334477424621582
      ],
      [
        "▁pacjentów",
        -10.334480285644531
      ],
      [
        "mo",
        -10.335108757019045
      ],
      [
        "▁prowadził",
        -10.335965156555176
      ],
      [
        "▁jedynym",
        -10.3360595703125
      ],
      [
        "▁struktury",
        -10.336221694946287
      ],
      [
        "▁ramiona",
        -10.336286544799805
      ],
      [
        "▁Tomasz",
        -10.336718559265137
      ],
      [
        "▁rękach",
        -10.337038040161133
      ],
      [
        "▁absolutnie",
        -10.337371826171877
      ],
      [
        "▁resortu",
        -10.337596893310549
      ],
      [
        "▁głównego",
        -10.338546752929688
      ],
      [
        "▁ataku",
        -10.338796615600586
      ],
      [
        "▁Klubu",
        -10.339574813842772
      ],
      [
        "▁sprawozdanie",
        -10.339651107788086
      ],
      [
        "▁lepsze",
        -10.340091705322266
      ],
      [
        "▁Społecznej",
        -10.340620040893556
      ],
      [
        "▁uprawnienia",
        -10.34068489074707
      ],
      [
        "▁pamiętać",
        -10.341230392456056
      ],
      [
        "▁chodziło",
        -10.341353416442873
      ],
      [
        "▁dotyczącej",
        -10.341758728027344
      ],
      [
        "▁prawnej",
        -10.341781616210938
      ],
      [
        "▁wpływu",
        -10.342448234558104
      ],
      [
        "▁roślin",
        -10.34245491027832
      ],
      [
        "▁doktor",
        -10.342496871948242
      ],
      [
        "▁rozmów",
        -10.342556953430176
      ],
      [
        "▁dziewczyny",
        -10.342973709106444
      ],
      [
        "▁rzadko",
        -10.344367027282717
      ],
      [
        "▁powstała",
        -10.344714164733888
      ],
      [
        "▁Państwowej",
        -10.34506607055664
      ],
      [
        "▁głosy",
        -10.345629692077637
      ],
      [
        "▁niemożliwe",
        -10.345903396606444
      ],
      [
        "▁wyjść",
        -10.346268653869627
      ],
      [
        "▁zapytała",
        -10.346527099609377
      ],
      [
        "▁jasno",
        -10.346646308898926
      ],
      [
        "▁Stanach",
        -10.347878456115724
      ],
      [
        "▁żebyśmy",
        -10.348101615905762
      ],
      [
        "▁skutków",
        -10.348795890808104
      ],
      [
        "▁zaczęli",
        -10.34959602355957
      ],
      [
        "▁46",
        -10.34974193572998
      ],
      [
        "▁Ha",
        -10.349885940551758
      ],
      [
        "▁Stanów",
        -10.349892616271973
      ],
      [
        "▁czele",
        -10.350282669067385
      ],
      [
        "▁obowiązki",
        -10.35197925567627
      ],
      [
        "iego",
        -10.352749824523926
      ],
      [
        "▁szkołach",
        -10.352924346923828
      ],
      [
        "▁min",
        -10.353026390075684
      ],
      [
        "▁odparła",
        -10.353235244750977
      ],
      [
        "▁Michał",
        -10.353410720825195
      ],
      [
        "To",
        -10.353730201721191
      ],
      [
        "▁dostać",
        -10.35397720336914
      ],
      [
        "▁sprawdzić",
        -10.354280471801758
      ],
      [
        "▁jazdy",
        -10.35435962677002
      ],
      [
        "th",
        -10.355509757995604
      ],
      [
        "▁poczucie",
        -10.355545997619627
      ],
      [
        "▁Li",
        -10.35604190826416
      ],
      [
        "▁tysiące",
        -10.35629940032959
      ],
      [
        "▁koszt",
        -10.35723876953125
      ],
      [
        "▁inwestycje",
        -10.358384132385254
      ],
      [
        "▁oświaty",
        -10.35862636566162
      ],
      [
        "▁polityka",
        -10.35880184173584
      ],
      [
        "▁90",
        -10.358994483947754
      ],
      [
        "▁istnieją",
        -10.35940647125244
      ],
      [
        "▁Również",
        -10.359930992126465
      ],
      [
        "▁danej",
        -10.36073398590088
      ],
      [
        "▁duszy",
        -10.360917091369627
      ],
      [
        "▁wystąpił",
        -10.36174488067627
      ],
      [
        "▁lekarz",
        -10.362403869628906
      ],
      [
        "▁podstaw",
        -10.362879753112791
      ],
      [
        "▁wysokie",
        -10.363207817077637
      ],
      [
        "▁wojsk",
        -10.36320972442627
      ],
      [
        "▁stosunków",
        -10.3632173538208
      ],
      [
        "▁biura",
        -10.3632230758667
      ],
      [
        "▁sędziów",
        -10.36345672607422
      ],
      [
        "sie",
        -10.364995002746582
      ],
      [
        "sk",
        -10.365026473999023
      ],
      [
        "ale",
        -10.36505126953125
      ],
      [
        "▁rodzice",
        -10.365084648132324
      ],
      [
        "▁żebym",
        -10.365388870239258
      ],
      [
        "▁Aby",
        -10.365755081176758
      ],
      [
        "▁Najpierw",
        -10.365796089172363
      ],
      [
        "▁dodatkowych",
        -10.36676788330078
      ],
      [
        "▁opłaty",
        -10.366788864135742
      ],
      [
        "▁podszedł",
        -10.366939544677734
      ],
      [
        "▁siłą",
        -10.367135047912598
      ],
      [
        "▁procesie",
        -10.36731243133545
      ],
      [
        "▁teren",
        -10.36775016784668
      ],
      [
        "▁wystąpienia",
        -10.367835998535156
      ],
      [
        "▁Krzysztof",
        -10.368209838867188
      ],
      [
        "acji",
        -10.368256568908691
      ],
      [
        "▁zapewnienia",
        -10.368477821350098
      ],
      [
        "▁ministerstwa",
        -10.36858081817627
      ],
      [
        "▁Ukrainy",
        -10.368698120117188
      ],
      [
        "▁brzmieniu",
        -10.368732452392578
      ],
      [
        "▁częściowo",
        -10.369229316711426
      ],
      [
        "▁europejskich",
        -10.369537353515623
      ],
      [
        "▁konia",
        -10.36960792541504
      ],
      [
        "▁przedtem",
        -10.369634628295898
      ],
      [
        "▁wypadek",
        -10.36992073059082
      ],
      [
        "▁chcąc",
        -10.369956970214844
      ],
      [
        "▁poważne",
        -10.370311737060549
      ],
      [
        "▁statek",
        -10.370827674865724
      ],
      [
        "▁twierdzi",
        -10.371071815490724
      ],
      [
        "▁Choć",
        -10.371376037597656
      ],
      [
        "▁wyższe",
        -10.372448921203612
      ],
      [
        "?!",
        -10.372594833374023
      ],
      [
        "▁wyjaśnił",
        -10.372809410095217
      ],
      [
        "▁dłonie",
        -10.37297534942627
      ],
      [
        "▁układ",
        -10.37310791015625
      ],
      [
        "▁Środowiska",
        -10.373188018798828
      ],
      [
        "▁uznać",
        -10.37324333190918
      ],
      [
        "▁zachód",
        -10.37345027923584
      ],
      [
        "bi",
        -10.374242782592772
      ],
      [
        "par",
        -10.374354362487791
      ],
      [
        "▁48",
        -10.374848365783691
      ],
      [
        "▁Ś",
        -10.375211715698242
      ],
      [
        "▁prawdy",
        -10.375293731689451
      ],
      [
        "▁33",
        -10.375533103942873
      ],
      [
        "▁połowy",
        -10.375664710998535
      ],
      [
        "▁kościół",
        -10.37592887878418
      ],
      [
        "▁liczyła",
        -10.37641716003418
      ],
      [
        "▁udzielenie",
        -10.376522064208984
      ],
      [
        "▁dobrego",
        -10.377263069152832
      ],
      [
        "▁spotkaniu",
        -10.377311706542969
      ],
      [
        "▁osobą",
        -10.37762451171875
      ],
      [
        "▁dalszych",
        -10.377825736999512
      ],
      [
        "▁budżecie",
        -10.377851486206056
      ],
      [
        "▁Naprawdę",
        -10.377863883972168
      ],
      [
        "▁straty",
        -10.377884864807127
      ],
      [
        "▁kształcenia",
        -10.378436088562012
      ],
      [
        "▁policja",
        -10.37844467163086
      ],
      [
        "▁Europejskiego",
        -10.379430770874023
      ],
      [
        "▁rozmawiać",
        -10.380743026733398
      ],
      [
        "▁metody",
        -10.381558418273926
      ],
      [
        "▁działać",
        -10.38157844543457
      ],
      [
        "owana",
        -10.38161277770996
      ],
      [
        "▁trudne",
        -10.381640434265137
      ],
      [
        "▁rzecznik",
        -10.382001876831056
      ],
      [
        "▁Wiesz",
        -10.382699966430664
      ],
      [
        "▁jakichś",
        -10.383015632629396
      ],
      [
        "▁tworzenia",
        -10.383179664611816
      ],
      [
        "▁bok",
        -10.383624076843262
      ],
      [
        "▁kupić",
        -10.384339332580566
      ],
      [
        "ność",
        -10.384499549865724
      ],
      [
        "▁przycisk",
        -10.38458251953125
      ],
      [
        "▁dalsze",
        -10.384634017944336
      ],
      [
        "▁sen",
        -10.384634017944336
      ],
      [
        "sy",
        -10.384703636169434
      ],
      [
        "▁dokonać",
        -10.385211944580078
      ],
      [
        "▁Zatem",
        -10.385221481323242
      ],
      [
        "jące",
        -10.385476112365724
      ],
      [
        "▁gospodarczych",
        -10.386763572692873
      ],
      [
        "▁postanowił",
        -10.387413024902344
      ],
      [
        "▁mruknął",
        -10.387460708618164
      ],
      [
        "son",
        -10.38756275177002
      ],
      [
        "▁toku",
        -10.387767791748049
      ],
      [
        "▁konferencji",
        -10.388565063476562
      ],
      [
        "▁zarządu",
        -10.389381408691406
      ],
      [
        "▁kon",
        -10.389593124389648
      ],
      [
        "ję",
        -10.389713287353516
      ],
      [
        "▁przyszedł",
        -10.390741348266602
      ],
      [
        "▁element",
        -10.39089298248291
      ],
      [
        "▁New",
        -10.391366958618164
      ],
      [
        "▁pełną",
        -10.39138126373291
      ],
      [
        "▁urząd",
        -10.3914155960083
      ],
      [
        "▁późno",
        -10.391778945922852
      ],
      [
        "▁bierze",
        -10.392009735107422
      ],
      [
        "▁podmioty",
        -10.39263153076172
      ],
      [
        "▁Chociaż",
        -10.393438339233398
      ],
      [
        "▁dostępu",
        -10.39362621307373
      ],
      [
        "▁cenę",
        -10.39401149749756
      ],
      [
        "▁prawnego",
        -10.39425563812256
      ],
      [
        "▁Taki",
        -10.39537239074707
      ],
      [
        "▁funduszy",
        -10.395833015441896
      ],
      [
        "▁związków",
        -10.396316528320312
      ],
      [
        "▁ks",
        -10.39649486541748
      ],
      [
        "▁model",
        -10.396576881408691
      ],
      [
        "▁doprowadzić",
        -10.39660358428955
      ],
      [
        "▁rolnych",
        -10.396661758422852
      ],
      [
        "▁rządowej",
        -10.397314071655272
      ],
      [
        "▁wodą",
        -10.398033142089844
      ],
      [
        "▁pozycję",
        -10.398065567016602
      ],
      [
        "▁jakiego",
        -10.398123741149902
      ],
      [
        "▁materiał",
        -10.3986234664917
      ],
      [
        "▁postępowań",
        -10.398651123046877
      ],
      [
        "▁świadomości",
        -10.398911476135254
      ],
      [
        "▁marszałka",
        -10.399097442626951
      ],
      [
        "▁głębi",
        -10.39933967590332
      ],
      [
        "▁północy",
        -10.39968204498291
      ],
      [
        "▁resort",
        -10.400280952453612
      ],
      [
        "▁dobrą",
        -10.401973724365234
      ],
      [
        "▁niezbędne",
        -10.402655601501465
      ],
      [
        "▁południu",
        -10.402682304382324
      ],
      [
        "▁krzyknął",
        -10.40273380279541
      ],
      [
        "▁charakterystycz",
        -10.4042329788208
      ],
      [
        "▁tekst",
        -10.404712677001951
      ],
      [
        "▁kilometrów",
        -10.404934883117676
      ],
      [
        "lem",
        -10.40546989440918
      ],
      [
        "▁każdą",
        -10.405529022216797
      ],
      [
        "▁wschód",
        -10.405631065368652
      ],
      [
        "▁2020",
        -10.405787467956545
      ],
      [
        "▁St",
        -10.4061279296875
      ],
      [
        "▁zająć",
        -10.406623840332031
      ],
      [
        "▁wejść",
        -10.407034873962402
      ],
      [
        "▁Świata",
        -10.40732765197754
      ],
      [
        "▁faktu",
        -10.40799331665039
      ],
      [
        "▁występują",
        -10.408079147338867
      ],
      [
        "skim",
        -10.408300399780272
      ],
      [
        "▁przypadków",
        -10.408538818359377
      ],
      [
        "▁Ani",
        -10.408727645874023
      ],
      [
        "▁należało",
        -10.40895938873291
      ],
      [
        "▁Dwa",
        -10.409173011779783
      ],
      [
        "▁VI",
        -10.409293174743652
      ],
      [
        "▁poznać",
        -10.409377098083496
      ],
      [
        "▁czekać",
        -10.409384727478027
      ],
      [
        "▁właściwego",
        -10.409510612487791
      ],
      [
        "▁starego",
        -10.409619331359863
      ],
      [
        "▁pisma",
        -10.409628868103027
      ],
      [
        "▁niektórzy",
        -10.410083770751951
      ],
      [
        "▁47",
        -10.410140991210938
      ],
      [
        "jący",
        -10.410173416137695
      ],
      [
        "▁okolicy",
        -10.410555839538574
      ],
      [
        "▁przepraszam",
        -10.410884857177734
      ],
      [
        "▁następujących",
        -10.41100025177002
      ],
      [
        "▁znajdzie",
        -10.411087036132812
      ],
      [
        "▁wydania",
        -10.411273956298828
      ],
      [
        "▁Zanim",
        -10.411664009094238
      ],
      [
        "owaniu",
        -10.412129402160645
      ],
      [
        "▁okno",
        -10.412480354309082
      ],
      [
        "▁walce",
        -10.412675857543944
      ],
      [
        "▁(...)",
        -10.412734985351562
      ],
      [
        "ała",
        -10.413108825683594
      ],
      [
        "▁Proponuję",
        -10.413211822509766
      ],
      [
        "▁Wiele",
        -10.413583755493164
      ],
      [
        "▁historia",
        -10.413792610168455
      ],
      [
        "▁niebo",
        -10.413918495178224
      ],
      [
        "▁trzecie",
        -10.414124488830566
      ],
      [
        "▁mierze",
        -10.41415023803711
      ],
      [
        "▁właściwy",
        -10.4148588180542
      ],
      [
        "q",
        -10.41495132446289
      ],
      [
        "▁Obrony",
        -10.41511344909668
      ],
      [
        "▁pole",
        -10.415261268615724
      ],
      [
        "▁budynków",
        -10.415355682373049
      ],
      [
        "▁publiczne",
        -10.415606498718262
      ],
      [
        "▁kar",
        -10.416050910949709
      ],
      [
        "▁lewej",
        -10.416189193725586
      ],
      [
        "▁brzmi",
        -10.416239738464355
      ],
      [
        "▁2)",
        -10.416864395141602
      ],
      [
        "▁Edukacji",
        -10.416865348815918
      ],
      [
        "▁interesów",
        -10.417643547058104
      ],
      [
        "▁piątek",
        -10.417819023132324
      ],
      [
        "▁Szanowni",
        -10.417911529541016
      ],
      [
        "▁Skąd",
        -10.418218612670898
      ],
      [
        "▁Stanisława",
        -10.418248176574709
      ],
      [
        "▁chętnie",
        -10.418615341186523
      ],
      [
        "▁bólu",
        -10.418932914733888
      ],
      [
        "▁Mogę",
        -10.41905117034912
      ],
      [
        "▁myślał",
        -10.420403480529783
      ],
      [
        "▁dziwne",
        -10.420750617980955
      ],
      [
        "▁zainteresowanie",
        -10.420835494995115
      ],
      [
        "▁bezpieczeństwo",
        -10.421299934387209
      ],
      [
        "▁danego",
        -10.421500205993652
      ],
      [
        "▁plany",
        -10.42158317565918
      ],
      [
        "▁6.",
        -10.422296524047852
      ],
      [
        "▁przyjaciół",
        -10.42247486114502
      ],
      [
        "▁duża",
        -10.42276382446289
      ],
      [
        "▁zgodę",
        -10.423304557800291
      ],
      [
        "▁złe",
        -10.423540115356444
      ],
      [
        "pod",
        -10.42371654510498
      ],
      [
        "▁paru",
        -10.423735618591309
      ],
      [
        "▁Zaraz",
        -10.424555778503418
      ],
      [
        "▁mogłaby",
        -10.424732208251951
      ],
      [
        "▁realizowane",
        -10.425189971923828
      ],
      [
        "▁terminu",
        -10.425579071044922
      ],
      [
        "▁wskazał",
        -10.426034927368164
      ],
      [
        "▁utrzymania",
        -10.426080703735352
      ],
      [
        "▁Straży",
        -10.427101135253906
      ],
      [
        "▁zęby",
        -10.427472114562988
      ],
      [
        "▁wielka",
        -10.427911758422852
      ],
      [
        "▁zapisu",
        -10.428409576416016
      ],
      [
        "▁odbywa",
        -10.428505897521973
      ],
      [
        "▁cokolwiek",
        -10.428786277770996
      ],
      [
        "▁wiąże",
        -10.428818702697754
      ],
      [
        "▁dodatkowo",
        -10.429279327392578
      ],
      [
        "▁karnego",
        -10.429283142089844
      ],
      [
        "▁Polacy",
        -10.430078506469728
      ],
      [
        "▁al",
        -10.430103302001951
      ],
      [
        "▁prawej",
        -10.430307388305664
      ],
      [
        "▁potrafił",
        -10.430855751037598
      ],
      [
        "▁korzyści",
        -10.430859565734863
      ],
      [
        "cia",
        -10.43199634552002
      ],
      [
        "▁dostał",
        -10.43289566040039
      ],
      [
        ">",
        -10.433028221130373
      ],
      [
        "▁Andrzeja",
        -10.43321704864502
      ],
      [
        "▁prowadzenie",
        -10.433330535888672
      ],
      [
        "▁widzieć",
        -10.43333339691162
      ],
      [
        "▁150",
        -10.433664321899414
      ],
      [
        "▁przestępstwa",
        -10.434103965759276
      ],
      [
        "▁prokurator",
        -10.434287071228027
      ],
      [
        "▁pismo",
        -10.434356689453123
      ],
      [
        "▁Taka",
        -10.43465518951416
      ],
      [
        "▁poniedziałek",
        -10.43527126312256
      ],
      [
        "▁macie",
        -10.43545913696289
      ],
      [
        "▁większej",
        -10.43582820892334
      ],
      [
        "▁finansowej",
        -10.435894012451172
      ],
      [
        "▁stale",
        -10.436927795410156
      ],
      [
        "▁kiedykolwiek",
        -10.436992645263672
      ],
      [
        "roz",
        -10.437644004821776
      ],
      [
        "▁wynagrodzeń",
        -10.437861442565918
      ],
      [
        "▁granicą",
        -10.437917709350586
      ],
      [
        "▁podkreślił",
        -10.437984466552734
      ],
      [
        "▁budzi",
        -10.438029289245604
      ],
      [
        "▁robił",
        -10.438441276550291
      ],
      [
        "era",
        -10.438796043395996
      ],
      [
        "▁mała",
        -10.43881893157959
      ],
      [
        "▁tłum",
        -10.438902854919434
      ],
      [
        "▁rezerwy",
        -10.439335823059082
      ],
      [
        "▁Wysokiej",
        -10.439400672912598
      ],
      [
        "▁grupę",
        -10.439465522766112
      ],
      [
        "▁kolejności",
        -10.43959903717041
      ],
      [
        "się",
        -10.439767837524414
      ],
      [
        "▁północ",
        -10.44028663635254
      ],
      [
        "▁programie",
        -10.440425872802734
      ],
      [
        "▁tygodnie",
        -10.440634727478027
      ],
      [
        "▁odrzucenie",
        -10.44108772277832
      ],
      [
        "▁Ku",
        -10.441277503967283
      ],
      [
        "▁firma",
        -10.441389083862305
      ],
      [
        "▁stopień",
        -10.441598892211914
      ],
      [
        "▁ZUS",
        -10.441657066345217
      ],
      [
        "▁równocześnie",
        -10.441743850708008
      ],
      [
        "nicy",
        -10.441859245300291
      ],
      [
        "nu",
        -10.442042350769045
      ],
      [
        "+",
        -10.442241668701172
      ],
      [
        "▁woda",
        -10.442727088928224
      ],
      [
        "▁przyznać",
        -10.442936897277832
      ],
      [
        "▁pas",
        -10.442944526672363
      ],
      [
        "▁pełnym",
        -10.442999839782717
      ],
      [
        "!...",
        -10.443374633789062
      ],
      [
        "▁dalszym",
        -10.444046020507812
      ],
      [
        "▁umiejętności",
        -10.44414520263672
      ],
      [
        "▁przedstawił",
        -10.44444179534912
      ],
      [
        "▁listę",
        -10.446122169494627
      ],
      [
        "▁mężczyźni",
        -10.446139335632324
      ],
      [
        "▁obrotu",
        -10.446266174316406
      ],
      [
        "▁przeznaczone",
        -10.446273803710938
      ],
      [
        "iej",
        -10.446450233459473
      ],
      [
        "▁autor",
        -10.44667148590088
      ],
      [
        "▁Pytanie",
        -10.447440147399902
      ],
      [
        "▁zdolności",
        -10.447957038879396
      ],
      [
        "▁dobrej",
        -10.448177337646484
      ],
      [
        "▁czuje",
        -10.448198318481444
      ],
      [
        "▁uśmiech",
        -10.448204040527344
      ],
      [
        "▁kampanii",
        -10.448301315307615
      ],
      [
        "▁niewątpliwie",
        -10.448456764221191
      ],
      [
        "▁początek",
        -10.449378967285156
      ],
      [
        "▁żadnym",
        -10.449451446533203
      ],
      [
        "▁tymczasem",
        -10.44984245300293
      ],
      [
        "▁słońce",
        -10.451004981994627
      ],
      [
        "▁Pewnie",
        -10.451166152954102
      ],
      [
        "▁następnego",
        -10.451200485229492
      ],
      [
        "▁pracownicy",
        -10.451372146606444
      ],
      [
        "▁określenie",
        -10.45154094696045
      ],
      [
        "▁filmu",
        -10.45177936553955
      ],
      [
        "▁zmienił",
        -10.45186710357666
      ],
      [
        "▁określenia",
        -10.452106475830078
      ],
      [
        "▁pt",
        -10.452665328979492
      ],
      [
        "▁oka",
        -10.452828407287598
      ],
      [
        "▁ów",
        -10.452961921691896
      ],
      [
        "▁istocie",
        -10.45301342010498
      ],
      [
        "▁racji",
        -10.453447341918944
      ],
      [
        "▁związany",
        -10.453709602355955
      ],
      [
        "▁nazwiska",
        -10.45385456085205
      ],
      [
        "▁wojskowych",
        -10.453938484191896
      ],
      [
        "▁dochody",
        -10.454398155212402
      ],
      [
        "▁Robert",
        -10.454668045043944
      ],
      [
        "ić",
        -10.454832077026367
      ],
      [
        "▁politykę",
        -10.45494556427002
      ],
      [
        "!\"",
        -10.455029487609863
      ],
      [
        "▁układu",
        -10.455825805664062
      ],
      [
        "▁1944",
        -10.456083297729492
      ],
      [
        "ź",
        -10.45634937286377
      ],
      [
        "▁stali",
        -10.45713710784912
      ],
      [
        "it",
        -10.457236289978027
      ],
      [
        "▁ostrożnie",
        -10.457345008850098
      ],
      [
        "▁czytania",
        -10.457550048828123
      ],
      [
        "▁zrobi",
        -10.457700729370115
      ],
      [
        "▁ogień",
        -10.457900047302246
      ],
      [
        "▁łóżku",
        -10.457900047302246
      ],
      [
        "www",
        -10.457956314086914
      ],
      [
        "▁robią",
        -10.458109855651855
      ],
      [
        "▁mężczyzny",
        -10.458399772644045
      ],
      [
        "▁trudem",
        -10.459872245788574
      ],
      [
        "▁założenia",
        -10.460127830505373
      ],
      [
        "▁rozporządzenie",
        -10.460331916809082
      ],
      [
        "▁kazał",
        -10.460344314575195
      ],
      [
        "▁poprawce",
        -10.46044921875
      ],
      [
        "▁działo",
        -10.46046257019043
      ],
      [
        "▁służyć",
        -10.46076488494873
      ],
      [
        "▁trafił",
        -10.460978507995604
      ],
      [
        "▁ręku",
        -10.461469650268556
      ],
      [
        "▁Pierwsza",
        -10.461504936218262
      ],
      [
        "▁ministrowi",
        -10.462318420410156
      ],
      [
        "▁najważniejsze",
        -10.462346076965332
      ],
      [
        "▁chociażby",
        -10.462407112121582
      ],
      [
        "▁Armii",
        -10.462413787841797
      ],
      [
        "▁własny",
        -10.462440490722656
      ],
      [
        "▁obecnych",
        -10.462564468383787
      ],
      [
        "▁urządzeń",
        -10.46297550201416
      ],
      [
        "▁wpływem",
        -10.463228225708008
      ],
      [
        "▁ściśle",
        -10.463299751281738
      ],
      [
        "▁wykorzystania",
        -10.463324546813965
      ],
      [
        "▁wyglądał",
        -10.463391304016112
      ],
      [
        "▁Druga",
        -10.464064598083496
      ],
      [
        "▁przekonany",
        -10.464277267456056
      ],
      [
        "▁sześciu",
        -10.4650297164917
      ],
      [
        "▁materiału",
        -10.466259956359863
      ],
      [
        "▁poszczególne",
        -10.467235565185549
      ],
      [
        "▁pojazdów",
        -10.467362403869627
      ],
      [
        "▁pozostałe",
        -10.467547416687012
      ],
      [
        "▁Wkrótce",
        -10.467570304870604
      ],
      [
        "▁Ojciec",
        -10.467901229858398
      ],
      [
        "▁istnienia",
        -10.468717575073242
      ],
      [
        "▁samochodów",
        -10.469114303588867
      ],
      [
        "▁historię",
        -10.469225883483888
      ],
      [
        "▁leczenia",
        -10.469778060913086
      ],
      [
        "▁weszła",
        -10.469823837280272
      ],
      [
        "▁1)",
        -10.470129013061523
      ],
      [
        "▁widząc",
        -10.470952987670898
      ],
      [
        "▁wyszła",
        -10.471129417419434
      ],
      [
        "▁Izba",
        -10.47118854522705
      ],
      [
        "▁obozu",
        -10.47132682800293
      ],
      [
        "▁wprowadza",
        -10.471390724182127
      ],
      [
        "lu",
        -10.471680641174316
      ],
      [
        "▁mego",
        -10.47248077392578
      ],
      [
        "▁kurwa",
        -10.472865104675291
      ],
      [
        "▁Kilka",
        -10.47391128540039
      ],
      [
        "▁odcinku",
        -10.474804878234863
      ],
      [
        "▁podoba",
        -10.475516319274902
      ],
      [
        "il",
        -10.475768089294434
      ],
      [
        "owała",
        -10.475882530212402
      ],
      [
        "▁Poznaniu",
        -10.475946426391602
      ],
      [
        "Za",
        -10.476178169250488
      ],
      [
        "▁obecność",
        -10.476320266723633
      ],
      [
        "▁ogólnej",
        -10.477251052856444
      ],
      [
        "▁biegu",
        -10.477828979492188
      ],
      [
        "▁sektora",
        -10.47786808013916
      ],
      [
        "▁Chciałem",
        -10.47823429107666
      ],
      [
        "▁samorządów",
        -10.478967666625977
      ],
      [
        "▁zobowiązań",
        -10.479318618774414
      ],
      [
        "▁swoimi",
        -10.47933292388916
      ],
      [
        "▁czekał",
        -10.479410171508787
      ],
      [
        "se",
        -10.479436874389648
      ],
      [
        "▁należą",
        -10.47994899749756
      ],
      [
        "▁studiów",
        -10.479995727539062
      ],
      [
        "▁ostatniego",
        -10.480114936828612
      ],
      [
        "▁gospodarstw",
        -10.480484008789062
      ],
      [
        "ży",
        -10.480578422546388
      ],
      [
        "▁poinformować",
        -10.481745719909668
      ],
      [
        "▁Pragnę",
        -10.48252773284912
      ],
      [
        "▁(1",
        -10.482621192932127
      ],
      [
        "▁dzieła",
        -10.482958793640137
      ],
      [
        "ge",
        -10.48314094543457
      ],
      [
        "▁godzinie",
        -10.483256340026855
      ],
      [
        "owano",
        -10.483304023742676
      ],
      [
        "▁określić",
        -10.483638763427734
      ],
      [
        "▁znajdował",
        -10.484818458557127
      ],
      [
        "▁społeczności",
        -10.48487377166748
      ],
      [
        "▁rozmowie",
        -10.486013412475586
      ],
      [
        "▁odpowiednich",
        -10.486223220825195
      ],
      [
        "▁państwowej",
        -10.486393928527832
      ],
      [
        "▁Moja",
        -10.486770629882812
      ],
      [
        "▁Ben",
        -10.48702335357666
      ],
      [
        "▁szybciej",
        -10.48750114440918
      ],
      [
        "▁funkcjonariuszy",
        -10.48843479156494
      ],
      [
        "▁znał",
        -10.4887113571167
      ],
      [
        "▁kandydatów",
        -10.489267349243164
      ],
      [
        "▁stu",
        -10.48942756652832
      ],
      [
        "▁NATO",
        -10.489545822143556
      ],
      [
        "▁kilkanaście",
        -10.4896879196167
      ],
      [
        "▁zamiar",
        -10.490030288696287
      ],
      [
        "▁wieczór",
        -10.490039825439451
      ],
      [
        "▁Łodzi",
        -10.490193367004396
      ],
      [
        "▁Część",
        -10.490769386291504
      ],
      [
        "▁siedzibą",
        -10.490872383117676
      ],
      [
        "▁czarne",
        -10.490946769714355
      ],
      [
        "▁400",
        -10.491799354553224
      ],
      [
        "▁prośbą",
        -10.49183750152588
      ],
      [
        "▁złego",
        -10.493016242980955
      ],
      [
        "▁wojna",
        -10.493131637573242
      ],
      [
        "▁szkolenia",
        -10.493194580078123
      ],
      [
        "▁Instytutu",
        -10.493402481079102
      ],
[...]
